#version: 0.2
ï ¼
ä ¸
ç ļ
çļ Ħ
ï¼ Į
ã Ģ
ãĢ Ĥ
ä »
ä º
å ı
æ ľ
ä ½
æ Ī
è ¿
å ħ
å Ĵ
åĴ Į
å Ī
ç Ķ
å ¤
å ®
æ ĺ
å ľ
å Ĭ
è ¯
ä¸ Ģ
å Ĳ
æ ĸ
ç »
ä ¹
ä» ¥
æĺ ¯
ãĢ ģ
ï¼ ļ
è ®
ĥ ½
å Ń
åı ¯
å °
åľ ¨
ä¸ ª
æ ķ
å º
é Ģ
è ĥ½
æĪ ĳ
æ Ĺ
ä ¼
å ¸
äº º
æ Ŀ
é ĩ
æľ ī
å Į
è ¡
çĶ ¨
è §
å ¹
å Ľ
å ¯
å ·
è¿ Ļ
ä¸ Ń
å ĩ
åı¯ ä»¥
è ¦
æ Ģ
è¦ ģ
ç İ
å ¼
å Ĩ
äº Ĩ
ç Ń
ä» ¬
ä¸ º
é Ĺ
é ¢
æ Ĭ
ç ī
ç §
ä ¿
å ¾
æ ŀ
å ¦
è Ģ
å ¥
ä¸ į
æ ī
çĶ Ł
æ ³
å¦ Ĥ
å ½
ç Ľ
æ Ń
æ ł
ç Ĳ
æ ı
Ġ t
é Ŀ
æĿ ¥
æ Ħ
è ĩ
å į
ä ¾
æķ °
å ĵ
æĹ ¶
æ Ľ
i n
æ ĥ
ä½ ł
åŃ ¦
æ İ
æĪ Ĳ
çŃ ī
* *
è¡ Į
å¯ ¹
æ Ļ
æĸ ¹
äº İ
æĸ ĩ
æı Ĳ
äº Ľ
é ľ
ä¸ ĭ
Ġ a
æ Ķ
æ °
æ ĭ
h e
è ´
ä¼ ļ
åĪ °
æĽ ´
ä¸Ģ ä¸ª
å ĳ
åľ °
å ¿
æ Į
æ į
éľ Ģ
ä½ ľ
â Ģ
åĪ Ĩ
çĲ Ĩ
å· ¥
å¥ ½
æ µ
èĩ ª
æ Ĥ
è¿ ĩ
ç ®
åĬ ¨
åĮ ĸ
æ ¯
è µ
å İ
ä» ĸ
å ±
ä¿ Ŀ
æĢ §
å¤ ļ
o n
ï¼ Ł
æĪĳ ä»¬
r e
åı ĳ
åĩ º
éĢ ļ
æĪ ĸ
æ³ ķ
ä¸ Ĭ
è ¾
é¢ ĺ
åº Ķ
Ġ Ġ
çī ©
å¤ §
æĬ Ģ
è¿ Ľ
å® ļ
e r
æį ®
éľĢ è¦ģ
å Ł
ä½ ĵ
ä½ ¿
çļĦ ç
é Ļ
æŀ ľ
åĬ Ľ
éĿ ¢
åħ ³
æĤ ¨
åĲ Į
æ ´
è§ £
é £
ç ±
çİ °
å¹ ¶
ç§ į
é «
éĹ ®
å° Ĩ
å° ı
åĬ ł
é« ĺ
ç º
æ ¸
ç «
ç ¨
å ģ
é ģ
åħ ¶
å¸ ¸
æ ±
æľ Ģ
è ī
æ ²
åŃ Ĳ
åº ¦
æľ º
ç ¡
éĩ ı
Ġt he
a t
æľ ¯
è ½
æĻ º
ç Ħ
å® ĥ
æĥ ħ
éĩ į
éĹ ´
æĦ Ł
ç ³
åĬ ©
Ġ s
ç± »
æ ¬
åĵ ģ
ä¹ Ł
åĲ Ī
é ĺ
æĻº èĥ½
è ¶
åĽ ł
æĸ °
e n
ä½¿ çĶ¨
o r
å ¢
çĦ ¶
è¡ ¨
ä¸ İ
è °
è® ¡
ä¹ ł
ç¡ ®
ç¨ ĭ
å »
å® ŀ
å® ¶
æĦ ı
i s
ä¹ ĭ
ç Ĥ
ç ¤
ä¸ ļ
èĢ Į
éĹ® é¢ĺ
a n
e s
å Ģ
æľ ¬
Ġ c
å¤ ©
å» º
å¾ Ĺ
è Ĥ
è¯ Ń
ä¾ Ľ
Ġ **
åı¯ èĥ½
å¸ ®
æ ģ
å¼ ı
ç ľ
æĬĢ æľ¯
ç» ı
å½ ±
æĺ İ
ä¸Ģ äºĽ
åĪ ¶
é Ķ
ä¿ ¡
å ī
åħ ¬
ç Ŀ
èĢ ħ
æıĲ ä¾Ľ
ç ´
çİ ¯
Ł ¥
è Ĭ
æĮ ģ
æķ° æį®
ç³ »
æ´ »
ä¹ Ī
a l
å± ķ
åħ ·
åħ ¥
é ļ
åŃ¦ ä¹ł
åĬ ¡
ç ½
ç ĸ
âĢ Ŀ
ç® Ĺ
âĢ ľ
å¸® åĬ©
è¿Ľ è¡Į
èī ²
æŃ ¤
ä¸ »
ä»¥ ä¸ĭ
åĲ İ
Ġ =
ä¾ ĭ
å¿ ĥ
éĢļ è¿ĩ
i t
æī Ģ
çĽ ¸
ç» Ļ
çī ¹
åħ ¨
åĮ ħ
äº §
çĶ µ
äºº å·¥
é ¡
æ ·
ç ¾
Ġ p
ç ©
çĤ ¹
ä½ Ĩ
å½ ĵ
o u
è¯ ·
äººå·¥ æĻºèĥ½
æ° ´
ä» £
æĥ ³
çĿ Ģ
å¼ Ģ
ç ķ
å¹ ´
Ġ f
å ŀ
ä» İ
æ° Ķ
å Ļ
é ¦
in g
Ġ w
è¿ ĺ
çĽ ®
åı ĺ
ï¼ ī
é ĥ½
l e
åĽ ½
è® ¾
æķ Ī
éĢ Ĥ
** ï¼ļ
æģ ¯
åĻ ¨
åĨ ħ
é ķ
è¿Ļ ä¸ª
a r
é ª
ï¼ Ī
è ģ
å¾ Ī
Ġ b
åŃ Ĺ
è¿Ļ äºĽ
è ·
ç ł
åĲ į
Ġ o
äº ĭ
éĢ ī
é£ Ł
å¦Ĥ æŀľ
ä½ ķ
æĪ ·
è® ©
å¹ ³
ç ¬
æ¯ Ķ
äº ¤
è¯ ¥
Ġ 1
å Ŀ
å¥½ çļĦ
é Ĥ
Ġ \
æ± Ĥ
æ¯ ı
éĿ ŀ
0 0
åı ĸ
å ĸ
é ħ
é Ľ
åĪ Ľ
æ ¡
ç» Ł
è´ ¨
å· ±
ä» »
ç» ĵ
èĩª å·±
ç ¼
Ł ³
Ġ m
æŃ £
åı Ĭ
å° ĳ
i on
éķ ¿
è Ļ
è ¢
ç¾ İ
å¤ ĸ
åĨ ³
çĲ ĥ
Ġ d
åľ º
ç ĥ
é ĥ
å¸ Ĥ
åĵ į
åĮ »
åŀ ĭ
æ º
Ġ in
æĺ¯ ä¸Ģ
å¤ Ħ
æĹ¶ éĹ´
å¢ ĥ
åºĶ çĶ¨
Ġa n
æł ĩ
i c
ä» ¶
æł ¹
æ³ ¨
ä¾ĭ å¦Ĥ
ä¿¡ æģ¯
è¯ Ĩ
æĹ ¥
åī į
æ ®
åıĳ å±ķ
åı Ĺ
åĪ ©
è® ®
è º
æ ¨
æľ Ł
ä½ į
æĭ ¬
é£ İ
éģ ĵ
æ ¶
èµ ·
é¢ Ĩ
å® ī
ç§ ĳ
åģ ¥
ä»ĸ ä»¬
å¤ Ł
ä¸į åĲĮ
å½± åĵį
è¯ ´
éĥ ¨
åĨ Ļ
éĩ Į
éĩį è¦ģ
ç« ł
èº «
è Ĳ
æıĲ é«ĺ
èµ Ħ
è į
ä¸Ń çļĦ
e d
ç¤ ¾
ä» Ģ
åĪ «
åŁ Ł
åĮħ æĭ¬
Ġo f
æ Ł
æī ĭ
æĢ »
æĸĩ ç«ł
è ¨
è¢ «
Ġt o
å ķ
ä»Ģ ä¹Ī
æº Ĳ
éĿŀ å¸¸
é Ł³
æł¹ æį®
` `
éĤ £
å® ¹
ç Ł¥
æŃ ¥
æ¨ ¡
è¯ į
o m
è ĭ
æĭ ©
æ »
éĢī æĭ©
æľ į
çİ¯ å¢ĥ
æĹ ł
æµ ģ
åĽ ŀ
çľ ĭ
å §
æľ ª
æ· ±
æİ ¨
æĬ ¤
Ġ 2
åĩ ı
çĸ Ĺ
Ġ n
å¼ º
é ¥
è° ĥ
ç ĭ
å·¥ ä½ľ
a c
åı ¥
åŁ º
å¯ ¼
æ® µ
a s
æł ·
èĢ ĥ
æĶ ¾
åį ķ
è¿ °
è¨ Ģ
å¦Ĥ ä½ķ
è¯ Ŀ
æķ Ļ
Ġ -
æł ¼
A I
çİ ĩ
èĥ½ å¤Ł
ä¹ Ĳ
èĬ Ĥ
ç Ĺ
é¢Ĩ åŁŁ
ç® ¡
æĸ Ń
ç´ ł
åı ¸
åĩ Ĩ
äºº ç±»
å½ ¢
ä¼ ł
è®¡ ç®Ĺ
åĳ ĺ
åħ ĥ
åº ·
æĸ¹ å¼ı
åĢ ¼
å»º è®®
çĶŁ æ´»
æ¸ ¸
åİ »
éª Į
æŀ Ĳ
ç ¥
ç ģ
åĪ Ĺ
Ġ is
æĮ ĩ
ç ¯
å® ¢
è¯ ķ
ç Ī
åģ¥ åº·
æµ ĭ
ç» Ħ
æķ ´
çĶŁ æĪĲ
ä¸ ¤
è Ī
æĸ¹ æ³ķ
ä¼ ĺ
æİ ¥
æ¡ Ī
è ĥ
è§ Ĥ
è¿ Ĳ
è ±
åĪĨ æŀĲ
è® ¤
Ġan d
æĶ ¹
åħ¬ åı¸
åŃ ĺ
å¢ ŀ
å° ±
åĲĮ æĹ¶
æ¬ ¡
æĶ ¯
å £
ç¤ º
æĸ Ļ
u m
åĽł æŃ¤
æĻ ¯
s t
ä» ·
en t
æĸ¹ éĿ¢
ç ²
e t
å¤ ĩ
é¢ Ħ
å¤Ħ çĲĨ
åº ı
å®ĥ ä»¬
æī ¾
ç³» ç»Ł
éĢ ł
è§ Ĩ
ç½ ĳ
åĲ ĳ
èĩªå·± çļĦ
æĸĩ åĮĸ
è® º
r o
åħ Ī
Ġ e
è¾ ¾
åħ¶ ä»ĸ
åĨ µ
æĽ´ åĬł
æľº åĻ¨
æĸĩ æľ¬
æ² ¡
Ġ "
ç Ļ
ç¯ ĩ
æľª æĿ¥
é Ĵ
Ċ ĠĠ
å® Į
æ ¼
i m
è Ħ
ĸ çķ
æµ ·
çĶ ±
åºĶ è¯¥
çŃ Ķ
Ġ re
åĮ º
ç¡® ä¿Ŀ
åĲ Ħ
åģ ļ
åĲ Ĺ
é »
æĢ ģ
Ġ l
é¦ ĸ
æĺ¯ ä¸Ģä¸ª
é¡ ¹
è İ
åħ³ äºİ
åİ Ĩ
å¤ į
- -
å¸ ¦
æĢ Ŀ
åı ª
åħ ī
è§ Ħ
åĬ Ł
éĩ ĳ
é ©
è ı
èĩª çĦ¶
è¯Ń è¨Ģ
æ¬ ¢
ç Ĭ
å®ī åħ¨
æ £
Ġ |
åı į
t h
çĶ¨ æĪ·
ä¸ ī
äºĨ è§£
åĸ ľ
åİ Ł
ç© º
ä¹ ī
åħ ±
å¹ ¿
è½ ¦
ä¸ª äºº
ä¿Ŀ æĬ¤
å· ²
è £
å¼ ķ
æľį åĬ¡
è§ Ĵ
è¾ ĵ
åĩı å°ĳ
åĳ ³
èĻ ĳ
Ġ h
ä½ł çļĦ
t e
åĪ Ļ
ç« ĭ
åı¯ä»¥ å¸®åĬ©
åĲ ¦
æĺ Ł
å¿ «
æ¸ ħ
åı £
# #
æ²¡ æľī
æŀ Ħ
Ġ $
éĢ Ł
èĩ ´
åĪ Ĵ
æŀ ģ
æ Ł¥
éĻ ©
åı Ĥ
æİ Ĵ
æĶ ¶
l l
ä¿Ŀ æĮģ
çº ¿
è§£ åĨ³
äºº ä»¬
Ġ 3
Ġ y
ç®¡ çĲĨ
ä»¥ åıĬ
åĩ ł
ç» Ĩ
é ĵ
äº§ åĵģ
åķ Ĩ
éĢļ å¸¸
å§ ĭ
éļ ı
æ¸ ©
ç ¿
ç® Ģ
æĽ´ å¥½
æĥħ åĨµ
åħ į
ç» Ń
å¤ ª
æĪ ĺ
ç¤¾ ä¼ļ
åĨħ å®¹
çĹ ħ
åĽ ¾
ç Į
ç ¦
è¿ ĳ
ä»» åĬ¡
è¶ Ĭ
ä¸ Ķ
æĹ ħ
åĳ Ĭ
çł ģ
åĵ ª
è® ¸
v e
è Į
ç§ ¯
å®ŀ çİ°
åĽł ä¸º
æ´» åĬ¨
æı ı
ãĢ Ĭ
ãĢ ĭ
è½ »
c t
èĬ ±
èĥ½ åĬĽ
æ ĳ
çĲĨ è§£
Ġ +
è¯ Ħ
å°ı æĺİ
çĽ ´
ä»¥ä¸ĭ æĺ¯
i d
è± ¡
æĽ´å¥½ åľ°
ï¼ ģ
éħ į
èĤ ²
åĮ» çĸĹ
2 0
æľ Ľ
Ġ (
æľ Ī
æĽ´ å¤ļ
çĪ ±
éĺ Ł
ç» ´
è¶ ³
ä¹ĭ éĹ´
åŁ İ
è®¾ è®¡
æ» ¡
è¿ĩ ç¨ĭ
Ġt h
ç ħ
éĩ ĩ
ç» ĥ
ç¼ ĸ
å ĥ
Ġ T
èı ľ
æķ ħ
é ¸
o w
ä¸ ĵ
æĤ¨ çļĦ
æ² »
è§ ī
éĽ Ĩ
æĸ ½
çİ¯ ä¿Ŀ
ç© ¶
è¾ ĥ
ä¾ ¿
æİ §
åħ· ä½ĵ
è¶ £
çł Ķ
çĶµ å½±
1 0
å Ķ
äº Ĵ
a m
æĪĳä»¬ çļĦ
æĬ ķ
çĬ ¶
Ġ S
éľĢ æ±Ĥ
è® °
Ġ g
å¸Ĥ åľº
åĥ ı
èĢĥ èĻĳ
è½ ¬
æ ¤
éĶ ®
åı ĭ
o t
è§ ģ
æĥħ æĦŁ
ç½ ®
ä¸» è¦ģ
èģ Ķ
å®ļ çļĦ
ç Ł
æİ ¢
åĽ ¢
åĸľ æ¬¢
æĺ¯ åĲ¦
u s
åĲ «
æĿ Ĳ
`` `
æ³¨ æĦı
æĪĸ èĢħ
ç¥ ŀ
ç¬ ¬
çĽ® æłĩ
åı¥ åŃĲ
æĸ° çļĦ
ä½Ĩ æĺ¯
æĺ¯ä¸Ģ ç§į
æĶ ¿
c e
ä¹ ¦
æĺ ĵ
æıı è¿°
ç¬ ¦
åı¯èĥ½ ä¼ļ
åı ²
u r
er s
åĲ ¬
æĶ¯ æĮģ
ã ģ
ä½ İ
éģ ¿
æ¨¡ åŀĭ
çº ¢
ä¸ ĸçķ
ä¸ĸçķ Į
æ ĵ
at ion
i g
æŃ Į
èİ ·
l y
éĺ ³
çĶ¨ äºİ
è´ ¹
ç´ ¢
åħ ĭ
èĭ ±
ï¼ Ľ
æĿ ¡
æ ļ
å¯¹ äºİ
èĲ ¥
ä» ½
ç®Ĺ æ³ķ
æķ° åŃĹ
ä¸Ń åĽ½
ä¸įåĲĮ çļĦ
è¯ »
äº «
æķĻ èĤ²
çī ĩ
éŁ³ ä¹Ĳ
u l
éĻ ħ
å¥ ¹
å¸ Ī
ä» ħ
çŃ ĸ
å¾ ĭ
è¿Ļ ç§į
å·² ç»ı
ç ¢
é ¤
éĶ Ļ
çº ¦
è· ¯
çĥ Ń
éĶ Ģ
é¥ ®
ç§ĳ æĬĢ
Ġ A
æ¶ Ī
è¯ ģ
è´¨ éĩı
è ĳ
çľ Ł
ä¸į æĸŃ
åĲ ¸
è®¸ å¤ļ
è° ¢
åį ³
åį ĩ
o l
æ Ĳ
æķĪ çİĩ
åıĺ åĮĸ
éģ¿ åħį
èĩ ³
ç² ¾
Ġy ou
å®¢ æĪ·
é¤ Ĳ
æī ĵ
å¯¼ èĩ´
åħ ħ
ä¸¤ ä¸ª
æĪĲ ä¸º
åĪ° äºĨ
q u
éļ ¾
i f
èº« ä½ĵ
ä¹ĭ ä¸Ģ
åħ³ éĶ®
Ġ 5
è®¡ åĪĴ
è®¤ ä¸º
éĻ ¤
æ ħ
æ¼ Ķ
åŁİ å¸Ĥ
u t
åĳ ½
è® Ń
åħ ´
å¼Ģ å§ĭ
åĢ Ļ
å¸ Į
çĻ ½
è£ ħ
Ġ I
æīĢ æľī
ä¸Ģ ç¯ĩ
ä¸Ģ ä¸ĭ
éĤ£ ä¹Ī
åĨ į
u n
å¸¦ æĿ¥
èī º
åĬ ¿
ä»İ èĢĮ
å¯ Į
Ġf or
éĢĤ åĲĪ
åİ ĭ
y th
åħ· æľī
å° ½
èµĦ æºĲ
éĩįè¦ģ çļĦ
æķħ äºĭ
ç»ĵ æŀľ
å¤§ çļĦ
èĩª åĬ¨
æŃ¤ å¤ĸ
æĪ ı
çĽ¸ åħ³
åı¯ä»¥ éĢļè¿ĩ
è¿Ĳ åĬ¨
çłĶ ç©¶
ä¸Ģ ç§į
å¯ »
éĻ Ĳ
å¢ŀ åĬł
å¤ ´
Ġ C
Ġ 4
åĪ© çĶ¨
èĤ ī
æĬ ¥
åİĨ åı²
åŃ¦ çĶŁ
æŁ Ĳ
åĪĨ ç±»
çĭ ¬
yth on
å° Ŀ
ä»£ çłģ
åħ »
ä¸» é¢ĺ
è´ Ń
èĢ ģ
åŃĺ åľ¨
å®Į æĪĲ
g e
å ĭ
å¤ ±
æ ¢
ä» Ĭ
at e
æĮ ĳ
åĳ ¢
ç± ³
è Ľ
åĽ¢ éĺŁ
åĲĦ ç§į
$ $
é¦ĸ åħĪ
åħ³ ç³»
å¯ Ĩ
è¡Į ä¸º
å ¡
æ¬ ¾
çļĦ äºº
å·¥ åħ·
å¿ ħ
è¯Ĩ åĪ«
å¼ ł
åĳ ¨
èģ Į
å ²
åĬŁ èĥ½
éĩ Ĭ
ä¼ ģ
æİ§ åĪ¶
æ¸¸ æĪı
åħ¨ çĲĥ
æī į
éĹ ¨
æ¯ı ä¸ª
å¸Į æľĽ
å¥ ³
è¯ Ĺ
ä½ľ ä¸º
çĦ¶ åĲİ
ç³ ĸ
ç¨ĭ åºı
åĩ ½
çļĦ å½±åĵį
äº§ çĶŁ
è¡¨ è¾¾
ç¿ »
åĩĨ ç¡®
æĬķ èµĦ
å¯¹ è¯Ŀ
é£İ éĻ©
æĪĳä»¬ åı¯ä»¥
ä¹ °
åı ·
åı °
å¸ ĥ
å½ĵ çĦ¶
è ŀ
äºº çļĦ
æľºåĻ¨ åŃ¦ä¹ł
æĢ§ åĴĮ
a y
çİ° åľ¨
è ¥
åĩ½ æķ°
çļĦ åıĳå±ķ
æ ¦
Ġ\ (
æ£ Ģ
åĽ ´
æĸ ¯
æĮĳ æĪĺ
å± ±
ç» ľ
ç§ĳ åŃ¦
è¥ ¿
ĠĠ ĠĠ
i l
ç§ °
æŁ ĵ
äº Į
èį Ĳ
åıĳ çİ°
ä¹ĭéĹ´ çļĦ
æİ¨ èįĲ
æĪĳ çļĦ
çħ §
i r
æĮģ ç»Ń
æį ¢
è ħ
ä¼ģ ä¸ļ
åĬ¨ çī©
åĮ» çĶŁ
éĺ ²
Ġs t
åĽŀ çŃĶ
æ³ Ľ
èĲ ½
æİ ª
a d
æľī æķĪ
ç ı
ç ª
æ¯Ķ å¦Ĥ
åħ¶ ä¸Ń
æĿ ¾
æľ ĭ
å»º ç«ĭ
is t
æľĢ è¿ĳ
c h
ä¸į ä»ħ
ç»Ļ æĪĳ
èŀ į
è¯ ¯
æ° ĳ
æ²» çĸĹ
çŁ Ń
è¯ ī
å°Ŀ è¯ķ
æĿ ĥ
i v
å· §
æĸ¹ æ¡Ī
æľĭ åıĭ
çĭ Ĺ
å¾Ī å¤ļ
è¯ ĳ
æİª æĸ½
èĽ ĭ
è¿Ļ æł·
ä» ĭ
çļĦ æĸĩç«ł
ä½ĵ éªĮ
åı ¤
éĻ į
æ Ĵ
ä¸ ½
ç¦ »
åĿ ĩ
ç½ĳ ç»ľ
it h
è¾ ¹
è¿ ľ
æĿ Ĥ
s e
çļĦ éĹ®é¢ĺ
çĽ ĳ
å¹¿ æ³Ľ
åŃ ©
å£ °
åľ° çĲĥ
ä¿ ®
åº Ń
æ ¿
å¿ µ
å¼Ģ åıĳ
åĪ¶ å®ļ
æĽ´å¤ļ çļĦ
ç» Ī
x t
ä¸Ģ æ®µ
å ¨
æ² ¹
åŃ £
å¤ ı
ä»ĸä»¬ çļĦ
çļĦ æĺ¯
éĥ¨ åĪĨ
Ġ P
æ¤ į
é¦ Ļ
åĸ Ħ
æī¾ åĪ°
æľĢ åĲİ
é ²
å¾Ĺ åĪ°
æıĲ åıĸ
è§Ĵ èī²
èīº æľ¯
ä¸Ģ èµ·
åĽł ç´ł
æĪ ¿
çļĦ åºĶçĶ¨
ä¼ °
ä»· åĢ¼
çĽ Ĭ
ç¡® å®ļ
in t
æµ İ
çº §
Ġc on
çī Į
è¦ģ æ±Ĥ
è®¾ å¤ĩ
Â ·
ä¼ Ĺ
è¾ĵ åħ¥
æĹł æ³ķ
ç§¯ æŀģ
éļı çĿĢ
çĶ »
äº¤ éĢļ
å¤© æ°Ķ
è®¡ç®Ĺ æľº
r ac
Ġb e
ä¼ł ç»Ł
é¡¹ çĽ®
é» ĳ
è´ Ł
è®Ń ç»ĥ
åĪ¶ ä½ľ
ç»ı æµİ
æ¿ Ģ
æĮ ī
v er
å¹¶ ä¸Ķ
é¢Ħ æµĭ
ç¿» è¯ĳ
Ġp ro
Ġa s
åĶ ®
æĪĳ æĥ³
ä½ľ çĶ¨
æĤ¨ åı¯ä»¥
çŃī çŃī
å®¶ åºŃ
è¡ ¡
ä¸Ĭ çļĦ
åĵª äºĽ
Ġ r
ç« Ļ
å¾ ģ
ä½ł åı¯ä»¥
æĢ» ä¹ĭ
æĬ Ĭ
ä»» ä½ķ
æ ½
è® ¨
äº ī
éª ¤
ä¸ĵ ä¸ļ
## #
èĥ½ æºĲ
å¾ ·
æŃ¥ éª¤
åĿ Ĺ
p p
ç¤¾ äº¤
o d
Ġ or
è§£ éĩĬ
è½ ¯
çŁ¥ è¯Ĩ
k e
æ¦ Ĥ
ä¸ °
åŁº äºİ
éĩĩ åıĸ
Ġw e
åħ³ æ³¨
æĬĢ èĥ½
ä¼ĺ åĮĸ
é ¼
æ± ¡
äººå·¥æĻºèĥ½ æĬĢæľ¯
æīĢ ä»¥
åĪ ĩ
ä¿ ĥ
åĨĻ ä¸Ģç¯ĩ
åĲ ĥ
re s
çŁ¥ éģĵ
å¹ ²
ä»¥ä¸ĭæĺ¯ ä¸ĢäºĽ
ç±» åŀĭ
åı ¦
é¥® é£Ł
åį ı
åĪĽ éĢł
å ª
å± Ĥ
åĪĹ è¡¨
éģ ĩ
åħĥ ç´ł
um b
åĳĬ è¯ī
å¤į æĿĤ
ç®Ģ åįķ
å¾ Ģ
è°ĥ æķ´
æĿĲ æĸĻ
æĪĲ åĬŁ
è¯ ¢
æĺ ¾
åĬł åħ¥
èī ¯
Ġa re
ç»ĵ æŀĦ
å¼ Ĥ
åĬ ±
çģ «
ç» į
ä¸į æĺ¯
å¤ª éĺ³
éĩı çļĦ
è´ £
ä¼ ¼
æĿ İ
åĩł ä¸ª
æŃ£ ç¡®
å Ĥ
ä»ĭ ç»į
an d
åĲĪ ä½ľ
æĭ ¥
èĳ Ĺ
èį ¯
å® ³
è¡Į ä¸ļ
Ġ v
æĪĳä»¬ éľĢè¦ģ
ç Ĩ
è¡¨ ç¤º
a b
çİ ©
æĿ¥ è¯´
çŃĶ æ¡Ī
èİ· å¾Ĺ
ĊĠĠ Ġ
Ġ on
åĪĽ æĸ°
æ±¡ æŁĵ
å· ®
è¯Ħ ä¼°
çļĦ éĩįè¦ģ
ä¸° å¯Į
è¯ ¦
åĽ Ľ
æĵ į
Ġth at
es t
èµ Ľ
æĽ ²
æĭ ī
æŃ£ åľ¨
çĮ «
Ġw ith
æİ¢ ç´¢
éļ Ĳ
è® ²
r i
çĶŁ äº§
n t
è¡¨ çİ°
åĨ³ çŃĸ
åĩº çİ°
h t
æĦŁ åĪ°
åį İ
åĽ Ń
Ġ B
å± ħ
èĮ ĥ
èµ· æĿ¥
è¿ĺ æľī
é£Ł çī©
å Ħ
å° Ķ
Ġ 6
å½ ķ
ä¸º äºĨ
é© ¬
åª Ĵ
åıĹ åĪ°
l d
è¯ Ĭ
ç»ı éªĮ
çĶŁ çī©
æĢ İ
æĤ £
å£ «
ç§ ģ
ç» ĩ
æŀ Ĺ
å¿ĥ çĲĨ
éĥ½ æĺ¯
æĭ Ł
åİĭ åĬĽ
å¾ ®
ä»· æł¼
è¯¦ ç»Ĩ
èĥ Į
ĸçķ ¥
çŃ ĸçķ¥
å¾ ħ
ç» ¿
æľº ä¼ļ
åĵģ çīĮ
¾ çĹħ
è¶ ħ
æĻ ®
Ġ it
åĮħ åĲ«
åĬ© äºİ
ä»ĸ çļĦ
ä»Ĭ å¤©
æł ĳ
çİ° ä»£
å® ¤
æĹħ è¡Į
é¸ ¡
åħ´ è¶£
åĮ Ĺ
é¢ ľ
T he
æ² Ł
å± ŀ
å®ŀ éĻħ
èµ °
Ġ he
00 0
é£ ŀ
äºĨ ä¸Ģ
è¾ĵ åĩº
æľī åĬ©äºİ
å¤ļ å°ĳ
äº Ķ
p t
éĺ ħ
å¦Ĥæŀľ æĤ¨
æĢ§ çļĦ
æĵį ä½ľ
æ·± åº¦
o g
æĶ¹ åıĺ
è¿ ŀ
é ¾
çĥ ¤
åĪ »
éħ Ĵ
åªĴ ä½ĵ
åģ ĩ
Ġ M
ä¹Ł æĺ¯
å¦Ĥæŀľ ä½ł
æĹħ æ¸¸
æķĪ æŀľ
Ġ F
éĿ Ļ
å ł
çļĦ åľ°
æ¯ į
éĶĻ è¯¯
ç»Ļ åĩº
æ¯Ķ è¾ĥ
é ±
ä¿ĥ è¿Ľ
é¢ ĳ
èį ī
a in
å¥ ĩ
é» Ħ
ĠT he
é± ¼
Ġ 0
æĦı è¯Ĩ
è¿ĩç¨ĭ ä¸Ń
çª ģ
æ³ķ å¾ĭ
æĬĢ å·§
Ġd e
æĺ¯ ä»Ģä¹Ī
è¿ ½
åħ± åĲĮ
åįķ è¯į
æľºåĻ¨ äºº
éĴ Ł
ä»¥ ä¸Ĭ
p e
æ²Ł éĢļ
çĸ ¾çĹħ
ä½ľ åĵģ
o s
æ ©
Ġ `
æīį èĥ½
åį Ĺ
åĽ °
éĹ »
æ°Ķ åĢĻ
åŃ© åŃĲ
åĩĨ å¤ĩ
åŃĹ ç¬¦
è´Ń ä¹°
ç¼ º
1 5
æ¤į çī©
æĳ Ħ
ä¹Ł åı¯ä»¥
æķ° åŃ¦
é¢ľ èī²
å¿« éĢŁ
åĮĸ çļĦ
Ġc an
ä»¥ ä¾¿
ou r
1 2
åĦ ¿
çļĦ ä¸Ģ
te xt
p l
æ ¹
å¹³ åı°
åĪ ¤
æĻ ļ
çī Ľ
åį ģ
ç ĳ
è¯· éĹ®
è Ń
éĶĢ åĶ®
åĬ ª
åıĳ çĶŁ
è¯Ĭ æĸŃ
åħ ¸
ä» ¤
åº ľ
åĩ »
çĶ ·
å¥ ¶
é£İ æł¼
ä¸ ¥
çģ µ
è¾ ĳ
Ġ E
å¯» æī¾
åŁ ¹
åĬª åĬĽ
P ython
çĶµ åŃĲ
èĩª æĪĳ
è´ ¢
äº¤ æµģ
äº ļ
æĭ¥ æľī
æī §
¹ æŀľ
è¿Ļ æĺ¯
èĭ ¹æŀľ
} {
ä¸Ģ ä½į
ç»Ħ ç»ĩ
e m
ä¸º æĤ¨
æļ ĸ
es s
èĩªçĦ¶ è¯Ńè¨Ģ
\ )
çĶŁ æĢģ
Ġ x
åıĤ ä¸İ
å¹³ è¡¡
Ġb y
åĳĺ å·¥
æķ° éĩı
åĴ ĸ
é Ĩ
Ġ H
Ġ 8
çī¹ å¾ģ
çĶŁ åĳ½
æ³ ¢
æ´ ģ
éĺħ è¯»
æ£Ģ æŁ¥
Ġn e
æķ £
æĪĳ ä¼ļ
è ĵ
e l
à ¤
' s
f rac
æĢĿ èĢĥ
éĢ Ĳ
æĹ ©
è¶ ĭ
Ġe x
å¢ŀ å¼º
å® Ŀ
æĪĲ æľ¬
æŃ ¢
æľī è¶£
æĶ¿ åºľ
åĳĬè¯ī æĪĳ
çİ ĭ
é² ľ
åº ĵ
ä¸ ľ
æ± ½
çļĦ æĸ¹æ³ķ
çĶŁæĪĲ ä¸Ģä¸ª
é¢ Ŀ
æľĢ ç»Ī
ç» ª
è¿Ļ ç¯ĩ
è½¯ ä»¶
åķ ¡
æĿ¥ è¶Ĭ
çļĦ ä¿¡æģ¯
æľī ä»Ģä¹Ī
äº ¬
æľī åħ³
it y
è¶Ĭ æĿ¥è¶Ĭ
æµ ª
åį ¡
æ½ ľ
èĦ ĳ
he r
æıĲ åįĩ
ç ĵ
åº Ĺ
ä¸Ģ æŃ¥
æĤ£ èĢħ
Ġw h
ä½ ı
ç´ §
éĢŁ åº¦
æ´ ĭ
å¤ ľ
åĴĸ åķ¡
éĩĳ èŀį
ä¼ ¦
èģĮ ä¸ļ
åį °
çŃ ĳ
ul t
ä¸ĭ éĿ¢
ig ht
ç§ »
åĳ ¼
è¶ĭ åĬ¿
åĿ ļ
ã Ĥ
åľº æĻ¯
è Ĵ
å°ı è¯´
è Ķ
u e
çĶ± äºİ
åĪ Ŀ
çķ Į
é¼ ĵ
ç¾ ¤
å° Ĭ
Ġ 7
åı ¶
Ġ W
ä¸ ´
åŁº æľ¬
éļĲ ç§ģ
å»º çŃĳ
m ent
åŁº ç¡
è¡Į åĬ¨
åŁºç¡ Ģ
èĪ Ĵ
æ¶ ī
Ġ D
âĢĿ ï¼Į
åħ¬åı¸ çļĦ
Ġc om
æĿ¡ ä»¶
æĿ ¿
1 9
in d
éĢĤ åºĶ
åī §
èģĶ ç³»
æł ¸
ç¦ ı
æĦı ä¹ī
ä¸į èĥ½
äº ĳ
å®ĥ çļĦ
åİ ħ
o re
ĥ åľ
çļĦç ¾
or t
åı¯ æĮģç»Ń
åĲ¸ å¼ķ
åľ Ł
è¯ ¾
åĤ ¨
åŀ ĥåľ
åŀĥåľ ¾
Ġ1 0
an t
i ve
ä¸ ĩ
æĥħ ç»ª
åıĺ å¾Ĺ
æ² Ļ
å· ´
ä½į ç½®
åĲ §
äºĨ ä¸Ģä¸ª
ç¼ ĵ
ç Ł³
åĬł å¼º
æ° §
æĢİ ä¹Ī
é º
è¿ĺ æĺ¯
å½ ©
ä¸ª æĢ§
a ge
Ġs e
ic e
é«ĺ æķĪ
AI æĬĢæľ¯
ç¼ĸ ç¨ĭ
éĽ ¨
t er
å¤ļ ç§į
çļ ®
åĪĽ ä½ľ
æ¸ Ĳ
æµĭ è¯ķ
å¸¸ è§ģ
åģļ åĩº
Ġn umb
èĪ ŀ
è¯Ń éŁ³
å¤ļ ä¸ª
åģ ı
çī© è´¨
æĪĳ åı¯ä»¥
éĵ ¾
åĪĽ å»º
åı Ī
ç»ĥ ä¹ł
åĽ¾ åĥı
èĻ ½
æ¸© åº¦
r om
æ· »
âĢĿ ãĢĤ
ç»Ļ å®ļçļĦ
ç² ī
æĶ¾ æĿ¾
æħ ¢
t im
è¿ĺ åı¯ä»¥
Ġ\ )
åĪĨ éĴŁ
-- -
ä¸ ²
ç¥ ¨
J o
åľ¨ è¿Ļä¸ª
5 0
äºĭ ä»¶
a v
éĻį ä½İ
é Ń
éĩĩ çĶ¨
ä¾ Ŀ
ï¼ļ âĢľ
å¾ ª
çļĦç ¤
ä½ł å¥½
3 0
æĥ ¯
å½ĵ åľ°
é© ¶
çĭ¬ çī¹
r int
æ¨¡ å¼ı
æ¯ı ä¸ªäºº
ä¸Ģ ä»½
ç¾İ åĽ½
æĸ° éĹ»
ç© ¿
åĪĨ äº«
èĩªçĦ¶è¯Ńè¨Ģ å¤ĦçĲĨ
å®ļ æľŁ
ä»£ è¡¨
æ¶ī åıĬ
é£Ł åĵģ
ä½¿ å¾Ĺ
åĬĽ åĴĮ
æ¢ ¦
åħħ æ»¡
æĺ ¥
æ»¡ è¶³
çī¹ åĪ«
è¡ Ģ
ãĢĤ âĢĿ
å°Ĩ ä¼ļ
èĻ½ çĦ¶
æ°´ å¹³
èĥĮ æĻ¯
æ±½ è½¦
æĥħåĨµ ä¸ĭ
è¡ £
id e
æĽ´ å¥½çļĦ
å°± æĺ¯
ä»¥ ç¡®ä¿Ŀ
çļĦç¾ İ
p le
ä¸į ä¼ļ
è ľ
çĽ´ æİ¥
éĥ½ æľī
æī§ è¡Į
å½¢ æĪĲ
å¦Ĥ ä¸ĭ
ä¸Ģ æ¬¡
æłĩ åĩĨ
èĻ ļ
æŁĲ äºĽ
æ°´ æŀľ
è¿ İ
åĨ °
çī¹ çĤ¹
æĹ ı
h n
èģ Ĭ
çĦ¶ èĢĮ
ä¸ī ä¸ª
åİŁ åĽł
å½¢ å¼ı
en ce
æĶ¿ çŃĸ
ä¸ ¾
åľ° åĮº
å½ Ĵ
è¿Ļç¯ĩ æĸĩç«ł
ç» ¼
ä¹ł æĥ¯
ä¸į è¦ģ
è ª
çķ Ļ
in e
è¿Ļ éĩĮ
ç ĩ
ct ion
Ġ le
æĪĲ åĳĺ
ç¨ ³
å° Ħ
ä» ĺ
æĶ¹ åĸĦ
o c
èĶ ¬
ä¼ ¤
æī ¿
éĢ ı
çŃī æĸ¹éĿ¢
äººç±» çļĦ
å®ĥä»¬ çļĦ
S S
æľªæĿ¥ çļĦ
æĭ ħ
ç¬ Ķ
ç« ŀ
1 00
æĢ§ èĥ½
Ġ R
é¼ĵ åĬ±
ç¤¾äº¤ åªĴä½ĵ
é¦ Ī
éļ ľ
æĺ¯ åľ¨
f or
Jo hn
_ _
d e
ç»Ļ å®ļ
æĺ¯ çļĦ
åĨĻä¸Ģç¯ĩ åħ³äºİ
äº ²
Ġ '
èī² çļĦ
ä½ł èĥ½
æĿ ¯
é¡ »
Ġ us
æīĭ æľº
èĵ Ŀ
æıĲä¾Ľ äºĨ
æĦŁ è§ī
å¹´ è½»
ç§ ĭ
æ ¥
æĸ¹ åĲĳ
çł ´
æĮī çħ§
å ©
åı¯ä»¥ ä½¿çĶ¨
s w
u re
æĳ ĺ
ç« ¯
Ġ L
Ġt r
åºĶ å¯¹
çľ ł
ä¹ ĺ
è± Ĩ
åıį é¦Ī
å¯ Ł
ç¼ĸ åĨĻ
èĶ¬ èıľ
è®¨ è®º
åĲį ç§°
åĨ ľ
æĹ¥ æľŁ
Ġ k
æĥ³ è¦ģ
èĲ¥ éĶĢ
en d
å¹³ åĿĩ
é© ¾
éĢł æĪĲ
ï¼ī ï¼Į
é¸ Ł
ä¸ ĸ
çĹ ĩ
è®° å½ķ
æ·±åº¦ åŃ¦ä¹ł
ä» į
çļĦ æķ°æį®
ou t
åº¦ åĴĮ
æĦ ¿
å¿ Ĺ
æľ ¨
çī¹ å®ļ
æ¯ı å¤©
" :
æĺ¯ æĮĩ
ä¼ ĳ
å¡ ĳ
æĶ¹ è¿Ľ
è§ī å¾Ĺ
å¨ ģ
é¤Ĳ åİħ
à ¸
ä½ ³
æ·± åħ¥
äº ®
éĢĤ çļĦ
u b
åħ·ä½ĵ çļĦ
å½ĵçĦ¶ åı¯ä»¥
åı¥ è¯Ŀ
åŃĹç¬¦ ä¸²
è´£ ä»»
éĴ Ī
åı¯ä»¥ åľ¨
æ¶Ī è´¹
æ¯Ķ èµĽ
æĽ ¿
æĹ¶ åĢĻ
åĨ ·
å¿ħ é¡»
æİ Į
åıį åºĶ
èĲ¥ åħ»
ç½ĳ ç«Ļ
åıĤ åĬł
å®ļ ä¹ī
Ġ 9
ä¸Ģ åĲį
a g
èĤ ¡
ç§ ĺ
åĮ» åŃ¦
Ġc h
ç» §
éĢ ģ
åĽ½ å®¶
çĮ ®
èĮĥ åĽ´
åĲĮæĹ¶ ä¹Ł
åľ¨ åĮ»çĸĹ
Ġ N
æ°ĶåĢĻ åıĺåĮĸ
as e
äºº åĳĺ
å®¹ æĺĵ
æł ¡
èİ· åıĸ
æĺİ ç¡®
çĸ «
æĹ¥ å¸¸
åķĨ åĵģ
ar t
äº« åıĹ
i es
ï¼ī ãĢĤ
æĥ³ æ³ķ
è· Ł
é¡ ¾
é¦ Ĩ
n d
i ll
Ġ [
æ´ ²
è Ĺ
æ·» åĬł
æİ¨ åĬ¨
æ¦Ĥ å¿µ
é«ĺ çļĦ
Ġn ot
âĢ Ķ
å± Ģ
çļĦ æĹ¶éĹ´
åĬ ŀ
åı Į
å°Ĩ åħ¶
åº §
ä¸Ń æĸĩ
é¡ º
æķ´ ä¸ª
èĩªåĬ¨ åĮĸ
Ġ un
æ· ·
çľĭ åĪ°
" ,
or d
è½¬ æį¢
èĩª çĶ±
å°ı çº¢
çİ° å®ŀ
çĦ ¦
è§£åĨ³ æĸ¹æ¡Ī
æĦŁ åıĹ
è¯Ĺ æŃĮ
çĬ¶ æĢģ
è§Ĥ çĤ¹
å² ģ
å¾ Ħ
æĲ ľ
æĢ» ç»ĵ
å· ¨
çĿ ¡
åĲĪ çĲĨ
éħ ¸
åº ķ
éĻ ¢
æĲ Ń
æ´ Ĺ
æį Ł
å¤ļ æł·
è· Ŀ
ç¬¦ åĲĪ
èŃ ¦
æµģ ç¨ĭ
è®© æĪĳä»¬
è¿Ļ æ®µ
å¯» æ±Ĥ
o b
èĳĹ åĲį
å® ĩ
i e
åľ¨ çº¿
è¿Ľ æŃ¥
éĩ İ
çĽ ĸ
Ġ2 0
çĨ Ł
éĿ Ĵ
èģĶ ç½ĳ
p rint
é¢ĺ çĽ®
Ġnumb er
éĤ ®
èĭ± æĸĩ
ç¥ŀ ç»ı
ä¸Ń å¿ĥ
åħ³éĶ® è¯į
çī Ī
æ´ ŀ
Ġ G
çļĦ å»ºè®®
ĠĠ Ċ
ä¾ĭ åŃĲ
éĢĤ å½ĵ
te p
çľ ¼
ç»ı åİĨ
ç»Ħ æĪĲ
tim es
ä¸Ģ çĽ´
æıĲ åĩº
å¤© çļĦ
è® ¿
çĤ ¼
èĮ ¶
é©¾ é©¶
èį¯ çī©
å¸® æĪĳ
éĿ ł
ç½ Ĺ
an s
å°Ĭ éĩį
æĸĩ ä»¶
Ġ Ã
åĨ ²
åĳ¼ åĲ¸
æı ¡
ç¤ ¼
æĴ Ń
æ®µ èĲ½
ç©º éĹ´
è· ĳ
åĨ³ å®ļ
äºĭ æĥħ
çļĦ çĶŁæ´»
æ± ĩ
å¼º è°ĥ
è¶³ å¤Ł
æŃ §
çĽ® åīį
å¯¹è¯Ŀ åĨħå®¹
o o
sw er
åķĨ ä¸ļ
çļĦç ł
ä¸º ä»Ģä¹Ī
æ ĩ
åĪ¤ æĸŃ
ç¢ ³
a p
2 5
ur n
æİĴ åºı
ç»´ æĬ¤
O SS
æŀ ¶
åĮĹ äº¬
éĺ ¿
çļĦç¤ ¾
ä¸Ģ é¦ĸ
ç©º æ°Ķ
èĪ ª
éģ µ
Ġ åľ¨
ac h
æ¬¢ è¿İ
Ġ qu
æľº æŀĦ
æĸĩ åŃ¦
åºĶçĶ¨ ç¨ĭåºı
åĪĽ æĦı
éĺ³ åħī
å® ĺ
æĳĺ è¦ģ
è¿Ľ ä¸ĢæŃ¥
å½ĵ åīį
ç ¹
è¿Ļ ä¸Ģ
am e
åĬĽ éĩı
çĽ Ĳ
è ĸ
å¿ħ è¦ģ
è· µ
ç»§ ç»Ń
æ¼ «
åį «
èģ ļ
åŃ¦ä¹ł åĴĮ
è¿ Ķ
ç¾İ ä¸½
å¿ Ĩ
i al
ç³ĸ æŀľ
è¯¾ ç¨ĭ
çļĦ å·¥ä½ľ
è§Ħ åĪĴ
éĻĲ åĪ¶
èī¯ å¥½çļĦ
( )
Ġ *
Ġ O
ä¼ ´
å±ķ ç¤º
éĹ®é¢ĺ çļĦ
å° ¼
ac t
æĶ¶ éĽĨ
éģĵ å¾·
ä¸Ń æıĲåıĸ
è®© æĪĳ
å®ŀ è·µ
è°¢ è°¢
åıĬ æĹ¶
è ¸
ç«ŀ äºī
i ke
æĲľ ç´¢
ä¸į åı¯
Ġa t
éħ ±
åĽ° éļ¾
å ³
u st
ä¸Ģ å®ļ
è®¾ ç½®
a ve
éĢ Ķ
èĢĮ ä¸Ķ
åħ¶ æ¬¡
a re
1 8
äºĴ åĬ¨
èĭ± è¯Ń
éĵ ¶
u c
æľī çĿĢ
Ġre s
å¤§ éĩıçļĦ
ç® ±
åıª æľī
æ² ³
æĬĢæľ¯ çļĦ
20 2
çº ª
å°ı æĹ¶
éĶ »
å¥ ĸ
é¥ °
åī ©
é¢ Ĺ
éĴ ±
éĶ» çĤ¼
i z
æĦŁ è°¢
å¹ ¸
çļĦç ĥ
æİĴ æĶ¾
çī© çĲĨ
i b
æľī äºĽ
ion s
çļĦ æĸ¹å¼ı
åĲį åŃĹ
Ġm e
æľī æ²¡æľī
åĿ ı
åĭ ĩ
æ£ ®
p ython
éĿ¢ ä¸´
éĢĲ æ¸Ĳ
å®¶ å±ħ
æī ©
è Ĩ
æķĪçİĩ åĴĮ
è´ §
çļĦç ¬
ä¸į éĶĻ
ç»ĵ åĲĪ
M OSS
çĬ¶ åĨµ
åį Ĭ
ä¹ĭ åīį
çĽ¸åħ³ çļĦ
æµ· æ´ĭ
Ġ en
å® Ļ
Ġ j
æİ¥ åıĹ
å° ļ
æĪĲ éķ¿
æľī æīĢ
çı Ń
çĶ¨ çļĦ
åľ Ĩ
éģ Ĺ
er m
æĢĿ ç»´
åı¯ä»¥ è®©
åĴ ¨
æ¸ħ æĻ
ä¼¦ çĲĨ
éĿ¢ çļĦ
èĢħ çļĦ
ç¬¬ äºĮ
ç¾İ é£Ł
Ġs h
ç³» åĪĹ
æĬ ĺ
è§Ħ åĪĻ
çĭ¬çī¹ çļĦ
å®ĩ å®Ļ
æĮĩ å¯¼
åį ļ
o x
è¯´ æĺİ
an g
åĴ¨ è¯¢
çļĦç ľ
çģ ¯
ä½ Ļ
ã ĥ
åį ±
å¸ ģ
åı£ æĦŁ
çĸ ĳ
åŃĺ åĤ¨
p ut
è¿Ļ æĺ¯ä¸Ģä¸ª
ä¸ĭ æĿ¥
ãĢĤ -
åı¯ä»¥å¸®åĬ© ä½ł
åĪĨ éħį
æĦı åĳ³
åĲİ çļĦ
im e
æľī å¾Īå¤ļ
å®ŀ éªĮ
a k
å® Ī
ä¼ ½
è¿Ķ åĽŀ
** :
ä½ĵ çļĦ
æ¯ Ĵ
æŃ£ç¡® çļĦ
åĽ½ éĻħ
. "
çī© åĵģ
åį ´
æŃ§ è§Ĩ
o st
çļĦ ä¸»è¦ģ
åı¯ä»¥å¸®åĬ© æĤ¨
ĠĠĠĠ Ġ
è¿ŀ æİ¥
éĤ® ä»¶
æĹł è®º
è§Ĩ è§ī
åı «
al l
èĪ ¬
ic al
éľĢè¦ģ æ³¨æĦı
æĢ ¥
Ġf rom
éĿ¢ å¯¹
t urn
æķ°æį® çļĦ
åĵ Ī
æĪĳä»¬ åºĶè¯¥
çĽ ĺ
ç¹ ģ
ic h
ou ld
å® ¡
Ġt e
é Ł
æ» ©
æ¯ Ľ
æĬ¥ åĳĬ
åĢ Ĵ
åĮĸ åŃ¦
è·Ŀ ç¦»
åģ ľ
éĩı åŃĲ
åı¦ å¤ĸ
æĦıåĳ³ çĿĢ
ç®Ģåįķ çļĦ
åĬĽ çļĦ
æİ¨ å¹¿
éģĩ åĪ°
è¿Ļä¸ª éĹ®é¢ĺ
åıĤ æķ°
è¿½ æ±Ĥ
æ¤ Ĵ
æĮ ¥
ľ ä¼½
è· ³
ç¿»è¯ĳ æĪĲ
æŃĮ æĽ²
å®Į åħ¨
è´ ¡
èĻļ æĭŁ
åĪ¶ éĢł
-- --
èĪĴ éĢĤ
æ³¨ éĩį
åĢ ĭ
éľ ²
æİĮ æı¡
åĲĪ éĢĤçļĦ
å® £
ä¸¥ éĩį
ï¼ļ ```
èĢģ å¸Ī
ï¼ļ -
å¤§ åĪ©
ou nt
çĻ ¾
Ġth is
éĴĪ å¯¹
å¤§ å°ı
è´¡ çĮ®
èĦ Ĥ
ç» Ŀ
ab le
ãĢĤ "
å¥ ı
èĽĭ çĻ½
æľĢ å¤§
éĵ ģ
å¤§ éĩı
å¹ »
ç¤¾ åĮº
ç¨³ å®ļ
åŁ¹ è®Ń
) :
ç £
éĿ ©
åį ĥ
çŃī é¢ĨåŁŁ
åģ¥ èº«
éĩį æĸ°
çĦ¦ èĻĳ
f e
ç»Ĩ èĬĤ
äººå·¥æĻºèĥ½ çļĦ
æľī ä¸Ģä¸ª
T om
æłĩ é¢ĺ
h is
è´Ń çī©
æ¶ ²
åĪ ļ
æ± ¤
r ing
éķ¿ æľŁ
æİ¢ è®¨
æĶ »
æĪĳ è®¤ä¸º
æĤ¨ éľĢè¦ģ
èĢ Ĳ
èĤ Į
ç¬ ĳ
è´Ł éĿ¢
éĻ¤ äºĨ
çħ ®
çº ³
t o
åı¯èĥ½ éľĢè¦ģ
æľĢ ä½³
æŁ Ķ
u d
Ġ U
éĢī é¡¹
éĢ »
èĥ ľ
åĽ º
èĹ ı
Ġa l
æĲŃ éħį
è¯Ń æ³ķ
åĿ Ĳ
å·® å¼Ĥ
æĬ Ĺ
ä¸ļ åĬ¡
è®¿ éĹ®
Ġp l
å·¥ ç¨ĭ
è´¢ åĬ¡
Ġ å°Ĩ
ä½ł éľĢè¦ģ
on e
éķ¿ åº¦
çĽ¸ äºĴ
p er
ç»¿ èī²
çļĦ æķħäºĭ
çļĦçł Ķ
éĶ ħ
çĤ Ĵ
æķ ı
äº¤ æĺĵ
åŃ£ èĬĤ
æ¸ħæĻ °
çĶ ľ
çĪ± æĥħ
i le
å¸¸è§ģ çļĦ
ä¹Ł ä¼ļ
åºĶ çļĦ
æĳĦ åħ¥
çĥ Ī
éĢ» è¾ĳ
æµ ĵ
è§Ĩ é¢ĳ
åĨ Ľ
çī¹ å®ļçļĦ
è¾¾ åĪ°
éĢ Ĵ
çº ¸
æ² ī
èĤ ¤
å® ł
è° Ī
åŃĹ æ¯į
Ġd o
å±ŀ äºİ
å¹¿ åĳĬ
for m
å®ī æİĴ
åı ³
è¾ Ĩ
æľī ä¸Ģ
å¾ª çİ¯
åĲ ¯
æĺ ł
å¼ķ èµ·
åĴĮ åħ¶ä»ĸ
é¾ Ļ
an ge
å¥³ æĢ§
çĶ¨ æĿ¥
çĽ¸ å¯¹
äºĴ èģĶç½ĳ
çĲĨ è®º
è¿Ĳ è¡Į
åħ¬ åħ±
åĴĮ æĸĩåĮĸ
å¢ŀ éķ¿
ä½ł è®¤ä¸º
ç¾İ åħĥ
é¾ Ħ
æĽ´ æĸ°
è®© äºº
æĿ Ł
è¾ ħ
çİ¯å¢ĥ ä¿ĿæĬ¤
è½ ½
ä¼ļ è®®
çļĦç Ī
c om
1 6
æķ°æį® åĪĨæŀĲ
éĨ Ĵ
éĢ Ļ
èĦ ļ
Ġ1 2
çĳ ľä¼½
å· ¦
å¡ĳ æĸĻ
çİ° è±¡
ä¸°å¯Į çļĦ
ä¹ ħ
i p
æķ´ æķ°
ac k
åĬ ³
éļı æľº
æ¸ħ æ´ģ
æ·± åĪ»
éĺ ¶
åºĶçĶ¨ äºİ
æµģ è¡Į
å Ĺ
éĩį å¤į
Ġ çļĦ
æ·· åĲĪ
ä¿Ŀ è¯ģ
as t
æĽ´å¥½åľ° çĲĨè§£
æĬ ½
ä¸į è¿ĩ
æĥ Ĭ
æĢĿ æĥ³
ä¼ĺ åĬ¿
åį Ī
. .
éĿ¢ ç§¯
èµ ı
è§ ¦
ç± į
çļĦåľ° æĸ¹
Ġa d
å®ł çī©
å¹¶ åľ¨
çĽ¸ ä¿¡
ä»¥ä¸ĭ åĩłä¸ª
çļĦ éľĢæ±Ĥ
è¡Į æĺŁ
ar y
åĨĻ ä½ľ
æĹ¶éĹ´ åĴĮ
èĥ½ éĩı
ä½ł ä»¬
æĢ» çļĦ
æ¨¡ æĭŁ
æŁ¥ è¯¢
åħ °
é¥ Ń
æ½ľ åľ¨
æľīæķĪ çļĦ
\ [
çķ ¥
åıĳ æĮ¥
ä»į çĦ¶
ĠĠ ĊĠĠ
ç»ı åħ¸
åħ¬ åĽŃ
çĽĳ æµĭ
c l
åĪĨ åĪ«
è¡¨ æĺİ
åĩı è½»
çĹ Ľ
ä¸ĵ æ³¨
ç¼ ©
è®² è¿°
åıĸ å¾Ĺ
è® ¢
å¹¶ ä¸į
1 1
çļĦ å°ı
æĦı æĢĿ
Ġyou r
æ£® æŀĹ
ç¨ĭ åº¦
æľ «
å¸¦æĿ¥ äºĨ
ç³ ķ
or k
æ£Ģ æµĭ
çĶŁæ´» ä¸Ń
æĢ»çļĦ æĿ¥è¯´
Ġp er
o p
èĲ ¨
å° ¤
æ± ģ
ç»ı å¸¸
çģ ¾
ç» ĺ
çĶŁæĢģ ç³»ç»Ł
æ± ł
æ¹ ¿
oo k
è¯ ļ
åį³ åı¯
ä¿Ŀ åģ¥
ä»¥ä¸ĭ æĺ¯ä¸Ģ
åŃ¦ æł¡
åķ Ĭ
çľ ģ
t al
è´ µ
å© ļ
ar d
h at
åĢ¼ å¾Ĺ
æĺ¯ çĶ±
èĢ Ĺ
æļ ´
åı¯æĮģç»Ń åıĳå±ķ
ç»Ļ ä½ł
å· ŀ
çļĦçłĶ ç©¶
è¿ ·
éĢĤå½ĵ çļĦ
åı¯èĥ½ çļĦ
æľī åĵªäºĽ
6 0
an ce
éŃ Ķ
çİ Ľ
çĽ¸ åĲĮ
æĦı å¤§åĪ©
é¡ µ
ä¸ªæĢ§ åĮĸ
in al
åĨħ éĥ¨
æľīè¶£ çļĦ
æł¸ å¿ĥ
çŃ ¾
çļĦ åħ³éĶ®
åĮ Ģ
æ¬ §
n e
Ġ Y
ç¼ĵ è§£
è¿ĩ åº¦
æĹ¶ å°ļ
çļĦ æĥħæĦŁ
n um
å¹´ é¾Ħ
è¿ĩ åİ»
æķ ĳ
åī Ĥ
çĥ §
æĶ¯ ä»ĺ
èĢĮ ä¸įæĺ¯
è· ¨
åģĩ è®¾
Ġpro v
çī Ļ
é¢Ħ ç®Ĺ
æľº åĪ¶
çļĦ æĬĢæľ¯
A l
äºº çī©
åĬ© æīĭ
çľŁ æŃ£
ç»Ħ åĲĪ
æĽ ¾
åħ¬ å¼ı
ç±»åŀĭ çļĦ
è¯Ŀ é¢ĺ
çļĦç ¨
æ»¡ æĦı
çĩ ĥ
ãĢĤ \
ç¾İ åĳ³
å¹¸ ç¦ı
è ķ
éĽ ª
èī ¾
æĥħ èĬĤ
åŃ ¸
çĶŁ éķ¿
è¢ ĭ
æ° ¸
æĿ¥ æºĲ
ä½į äºİ
Ġ J
æ± ī
åĸľæ¬¢ çļĦ
æ© Ļ
ä¼ĳ æģ¯
åı£ åĳ³
åĨ Ĵ
Ġ Ð
æ³ ¡
e ar
Ġh ave
æĻºèĥ½ å®¶å±ħ
çĬ ¯
æ° Ľ
æħ §
åı¯ éĿł
æĹ ¨
Ġl ike
æĦ ī
çļĦç ¼
è ³
2 00
åĢ ¾
è¯Ħ è®º
ç§» åĬ¨
æĹ ĭ
ä¸ Ŀ
ç¥ŀç»ı ç½ĳç»ľ
åı¯èĥ½ æĺ¯
é ¹
c on
èĳĹåĲį çļĦ
å®ŀ æĹ¶
ç¥ Ŀ
Ġ im
ç» ©
éģ į
Ġa r
åģ¥åº· çļĦ
å¾Ī å¥½
çİ© å®¶
åŃ ¤
ç§° ä¸º
' ,
æĶ¶ åħ¥
Ġm an
å® ½
( "
å² Ľ
çļĦç ģ
è¾ £
æĪĲä¸º äºĨ
i re
å³ °
èµ ĸ
é ŀ
è¿Ļ æĺ¯ä¸Ģ
åĩº æĿ¥
è Ŀ
Ġto tal
åĩ Ģ
æĸĩåĮĸ åĴĮ
è¡ ¥
çĶµ è§Ĩ
è§£åĨ³ éĹ®é¢ĺ
1 4
èĽĭçĻ½ è´¨
éļı æĹ¶
çĽ¸ ä¼¼
åĬ¨ ä½ľ
a x
ent ence
é ĸ
çļĦç º
u p
ä¸Ĭ æľĢ
åĲ¬ èµ·æĿ¥
æĻº æħ§
if ic
res s
æ³ ³
å¤ı å¤©
ro w
æĸ¹éĿ¢ çļĦ
åº Ł
åĨ ¥
åŃĲ çļĦ
éĿŀå¸¸ éĩįè¦ģçļĦ
a pp
re n
å¿ ĺ
æĸĩ åŃĹ
çļĦ å®īåħ¨
è¸ ª
± ä¹Ĳ
ä½ľ èĢħ
åıĺ éĩı
ç§ĳåŃ¦ å®¶
éĽ ¶
èĤ ¥
å¸®åĬ© æĤ¨
å¹³ çŃī
æ¸© æļĸ
è ©
å£° éŁ³
ç¥ŀ ç§ĺ
åĽ¢éĺŁ æĪĲåĳĺ
åº Ĭ
è¯Ħ ä»·
éªĮ è¯ģ
è¿Ļ åı¥è¯Ŀ
çĶµ èĦĳ
æļ Ĺ
ä¿® æĶ¹
æ¶ ¦
ç§ Ģ
ac e
ä½ Ľ
æĻ¯ çĤ¹
èĤ¡ ç¥¨
å¥ ¥
å ĺ
é«ĺ åº¦
åĮº åŁŁ
è§Ĥ å¯Ł
å¤ «
åľ° æĸ¹
è° ±
ä»¤ äºº
æīĢ éľĢ
æľīæķĪ åľ°
éĤ£ äºĽ
æį ·
åı¯ä»¥ æł¹æį®
Ġe qu
æĿ¥ èĩª
èĳ ±
æł· çļĦ
å§ Ĩ
æĶ¾ åľ¨
åĵª ä¸ª
T o
æĭ ¼
æĺ¾ ç¤º
ä¸Ģæ®µ å¯¹è¯Ŀ
Ġs u
re nt
ç¼ĸ è¾ĳ
iv en
æ°§ åĮĸ
æĹ¥ æľ¬
è§Ĥ ä¼Ĺ
Ġa b
ç±» ä¼¼
c ri
è®° å¿Ĩ
ä¹¦ ç±į
ç¡® å®ŀ
æľ Ŀ
æ¡ £
å¹´ çļĦ
éĢĤ éĩı
æ¡ Ĩ
è¡¨ æł¼
Ġs pe
æĹ¶ æľŁ
æĭ ¿
ä¹ İ
åį ·
åŃ¦ ä¼ļ
Ġv al
æĸ¹ ç¨ĭ
ç²¾ ç¥ŀ
å» ¶
çļĦ é£İéĻ©
é¢Ħ éĺ²
Ġ æĪĳ
çĶ¨æĪ· çļĦ
åıĹ æ¬¢è¿İ
åĿļ æĮģ
åľ¨ äºİ
åĳ Ī
è¿Ļ å°Ĩ
æıĲä¾Ľ ä¸ĢäºĽ
Ġ| |
ç¡ ¬
æĸ¹ ä¾¿
è ¹
è¿ĺ éľĢè¦ģ
at ed
æŁĲ ä¸ª
Ġ /
æĹ ¢
ä»ĸ äºº
æ¶Īè´¹ èĢħ
ï¼ī ï¼ļ
è¿Ľ åħ¥
åĨ¥ æĥ³
ä¸» ä¹ī
æĪĳ å°Ĩ
åĵ ²
å¿« ä¹Ĳ
èĥ ¡
Ġh as
åı¤ ä»£
ä¸Ģ èĪ¬
åħħ åĪĨ
æ» ĳ
èģĬ å¤©
å¤ª ç©º
é¥ ¼
4 0
åĪĹ åĩº
çĶŁ åŃĺ
Ġ1 5
èĮ Ħ
çĿ¡ çľł
ä¸Ń æľĢ
å¿ħè¦ģ çļĦ
è½¬æį¢ ä¸º
Ġ #
ç¨ İ
çļĦéĩįè¦ģ æĢ§
å¥ Ĺ
è§Ĵèī² ä¿¡æģ¯
æīĢ è¿°
æ® Ĭ
è° ·
ä¿¡ ä»»
åĢ ĳ
é£Ł æĿĲ
è¡¨ éĿ¢
è§ Ī
å±ķ çİ°
æķĻ åŃ¦
åĲĦ ä¸ª
Ġ if
çĶ ³
çļĦç Ł¥
åıĸ åĨ³
å°¤ åħ¶
åıĸåĨ³ äºİ
åı¯ä»¥ æıĲé«ĺ
éŀ ĭ
å°½ ç®¡
çĽ´ åĪ°
åŁ¹ åħ»
å¤įæĿĤ çļĦ
æĭ Į
å¿ Ļ
æĪĳ éľĢè¦ģ
åŁº åĽł
r y
æģ Ĳ
å¤§ åŃ¦
ä»·åĢ¼ è§Ĥ
it e
è¯ŃéŁ³ è¯ĨåĪ«
æķ°æį® éĽĨ
f t
åįı ä½ľ
as s
æ³ķ è§Ħ
ç»¼ ä¸Ĭ
ä¹ ³
åĪĨ ä¸º
æĢ§ åĪ«
è¶³å¤Ł çļĦ
å·¥ ä¸ļ
ç§¯æŀģ çļĦ
Ġre turn
å®ŀ æĸ½
æľ¬ ä¹¦
Ġc l
åľ¨ æľªæĿ¥
å¯¹ æĸ¹
è´ ¦
åıĳ å¸ĥ
ï¼Į âĢľ
çļĦç ½
çĽ¸ åºĶçļĦ
Ġcon t
å¼Ģ æĶ¾
æŀĦ å»º
æĪĳ å¾Ī
è½ ®
ä¸ĸ çºª
çī¹ æ®Ĭ
åŃ¦çĶŁ çļĦ
è§Ĵ åº¦
å®£ ä¼ł
è½» æĿ¾
ä» ¿
Ġ i
çĽ® çļĦ
å¥¹ çļĦ
ĠS tep
è° ģ
Ġwh ich
è®¤ è¯Ĩ
åĮº åĿĹ
è ²
ç¤º ä¾ĭ
æ¶īåıĬ åĪ°
Ġd et
ä¸Ģ åıª
ç¾İä¸½ çļĦ
æģ ¶
d u
çĻ »
æ¬ £
è®¤ çŁ¥
èĽĭ ç³ķ
i a
åĳ³ éģĵ
äº§åĵģ çļĦ
ä¾Ŀ èµĸ
è°ĥ æŁ¥
p ort
éº ¦
é«ĺ åħ´
å¹¶ æıĲä¾Ľ
è´¹ çĶ¨
æİ¨ çĲĨ
ä½¿ åħ¶
æŃ »
o ll
åĴĮ ç¤¾ä¼ļ
æ¸¸ æ³³
çļĦç ĭ
å¼ ĥ
ç»¼ åĲĪ
æıĲä¾Ľ çļĦ
é¢Ĩ å¯¼
æĶ» åĩ»
åı¯ä»¥ çĶ¨äºİ
æ¥ ¼
åĳ¨ åĽ´
å¹ ħ
Ġp r
ar k
çļĦ å¤©æ°Ķ
éĢı æĺİ
ä¼ĺ åħĪ
çŃī äºİ
æĢ» æĺ¯
é¡º åºı
ç»¼ä¸Ĭ æīĢè¿°
e ll
é¸¡ èĽĭ
èĤ ª
Ġn um
èĦĤ èĤª
B ob
çĶ ļ
c ess
å®¶ äºº
è¯į æ±ĩ
å¤ı åŃ£
æĻ Ĥ
åĿĩ åĮĢ
æľ Ĺ
èĥ ģ
èĥ ŀ
æĸ° é²ľ
è¯» èĢħ
ä¸ĭ çļĦ
æıĲ åĪ°
c ul
Ġs o
1 3
åĩ ī
å°± ä¸ļ
é¢ĨåŁŁ çļĦ
å¸®åĬ© ä½ł
èĩ³ å°ĳ
å·§ åħĭ
åĩº äºĨ
çļĦ ä¸»é¢ĺ
æĭ Ľ
çīĽ å¥¶
av a
ä¹ ı
èĩªåĬ¨ é©¾é©¶
æĶ¾ åħ¥
äº¤ äºĴ
åĨ ¬
å¨ģ èĥģ
ç µ
å¡ Ķ
æĭ į
X X
å¹³ æĸ¹
æŁ¥ çľĭ
b ox
æ¹ ĸ
å¯¹ çİ¯å¢ĥ
ç« ¥
çĶŁæ´» æĸ¹å¼ı
å¤ļ çļĦ
éĺ² æŃ¢
åĽłä¸º å®ĥ
å¨ ±ä¹Ĳ
ä¸Ĭ è¿°
æİ¥ ä¸ĭæĿ¥
è¾ħ åĬ©
æĥ ł
Ġ1 00
å¦Ĥä½ķ åľ¨
un ction
ä¼ł æĴŃ
æµª è´¹
å° º
çļĦçĥ Ń
çļĦ çİ¯å¢ĥ
éĹ Ń
æī ¹
on g
çĤ º
çļĦ ä½¿çĶ¨
de f
æĦŁ åħ´è¶£
¹ é¥
Ġa ll
å¯Ĩ çłģ
å¦ Ī
¹é¥ ª
åĸ Ŀ
æī ®
æĻºèĥ½ åĮĸ
ä¸Ģ ç»Ħ
çļĦç¬ ¬
it ion
ou nd
ä¾ Ĩ
åĪ º
å½¢ è±¡
åĲ¬ è¯´
äºº çĶŁ
at a
åĮºåĿĹ éĵ¾
Ċ Ġ
å®ī è£ħ
æĢģ åº¦
or ld
çĶļ èĩ³
åĵ² åŃ¦
åİŁ çĲĨ
æĦŁ åıĹåĪ°
èī² å½©
çī© ä½ĵ
åľ¨ ä¸Ģèµ·
çĶŁ ç´ł
Ġa pp
p s
äºº æ°ĳ
2 4
æıĲä¾Ľ æĽ´
çķ ª
æ£ Ĵ
åĪĨ å¸ĥ
) .
Ġne ed
Ġw he
l ist
éĵ¶ è¡Į
åıª æĺ¯
Ġ ä½¿çĶ¨
æ¢¦ æĥ³
äºĨ ä¸ĢäºĽ
å¤§ å®¶
çĶŁæĪĲ ä¸Ģæ®µ
å®Į æķ´
ĊĠĠ ĠĠĠĠĠ
å° ģ
åĪĽå»º ä¸Ģä¸ª
I n
åİ ļ
n ow
æĦı è§ģ
åĴĮ æ²»çĸĹ
åıĺ æļĸ
è½¦ è¾Ĩ
Ġa c
a ke
ä¸Ĭ ä¸ĭ
éĢ Ģ
å® «
æķ° çļĦ
èĻ «
Ġan swer
Ġ AI
ä¸Ģ æł·
ç»ı è¿ĩ
è¶ħ è¿ĩ
é£ŀ è¡Į
èĤĮ èĤī
åĶ ±
åĪĨæŀĲ åĴĮ
is h
ç¾İ å¥½çļĦ
çŃī æĸ¹å¼ı
çĤ İ
çĨ Ĭ
åĴĮ åıĳå±ķ
ç»Ĩ èĥŀ
æĢ Ģ
æ°Ķ æ¸©
æī °
çı į
ĠI n
äº Ī
åĨľ ä¸ļ
çļĦç ²
è´ ¥
Ġe ach
1 7
Al ice
åĨ² çªģ
çļĦçŁ¥ è¯Ĩ
çĿ £
åľ¨ ä¸Ģä¸ª
ä»Ģä¹Ī æĺ¯
è£ħ é¥°
çļĦçĪ ±
ic k
çļĦç ©
çķ ħ
æĹ¶ ä»£
æ°Ľ åĽ´
ä¿Ŀ éļľ
è®¾ æĸ½
éĥ½ ä¼ļ
æģ Ĵ
è§Ħ å¾ĭ
çļĦ åĨħå®¹
Ġhe l
å½ ¼
å»º è®¾
èĩª èº«
éĥ¨ çĶµå½±
çļĦç ³
ation s
åı¯èĥ½ å¯¼èĩ´
è¯· åĳĬè¯īæĪĳ
åĽŀ æĶ¶
Ġw ill
Ġw as
å½¢ çĬ¶
\ ]
å·¨ å¤§çļĦ
box ed
éĻ Ħ
éĥ¨ éĹ¨
å¤§ æ°Ķ
å¹ ķ
æĹ¨ åľ¨
æĿ ĳ
éĽĨ ä¸Ń
at es
åĨį çĶŁ
æĬ ±
W e
æģ ¢
ä¼ĺ ç§Ģ
Ð °
æİ Ī
æĪĲ åĪĨ
é» ĺ
åĴĮ å®īåħ¨
ç½ ª
æł¼ å¼ı
å°½ åı¯èĥ½
å° ¾
çĭ¬ ç«ĭ
w e
çģµ æ´»
è¿ ¹
åľ° çĤ¹
åıĺå¾Ĺ æĽ´åĬł
åĴĮ åºĶçĶ¨
æ´ ¾
æ°Ķ ä½ĵ
åį ł
çļĦç Ĺ
i ly
çļĦ å¥½
æĸ Ĺ
è§Ħ æ¨¡
p on
8 0
æŃ£ å¸¸
å·§åħĭ åĬĽ
) ,
åĴĮ åĪĨæŀĲ
é»ĳ æ´ŀ
æķ° ç»Ħ
çļĦç½ ĳ
ç±» åĪ«
æĽ´å¥½åľ° äºĨè§£
å¡ «
æĬ¥ éģĵ
æĿ¥ å®ŀçİ°
d er
ä¹Ł æľī
è´Ł è´£
æĿ °
å°Ĩ ä»¥ä¸ĭ
) )
èĩª è¡Į
åħ¬ éĩĮ
çļĦ åģ¥åº·
åĴĮ è°
èª ī
Ġm ore
åħ· å¤ĩ
åĴĮ æĶ¯æĮģ
è¿Ľ å±ķ
åĬ¨ åĬĽ
åľ¨åĮ»çĸĹ é¢ĨåŁŁ
åĵģ è´¨
éķ ľ
éĻ Ī
èĩ³ åħ³
äººå·¥æĻºèĥ½ åľ¨
ç¬¬ ä¸Ģ
è¿Ļæł· çļĦ
é¡ ¿
Ġf ind
åĩĨç¡® åľ°
åıĤ èĢĥ
åħ± äº«
çĵ ¶
æīĵ å¼Ģ
Ġ {
æĮĩ çļĦæĺ¯
æ¯ıä¸ªäºº éĥ½
è§Ħ å®ļ
æģ¢ å¤į
åº¦ çļĦ
çľŁ çļĦ
is e
ç¬¬ ä¸ī
æīĵ åį°
èĩª ä¿¡
åħ¬ å¹³
èľ ľ
æī® æ¼Ķ
æĪ· å¤ĸ
æ³¨æĦı åĬĽ
åīį æĻ¯
çĶ ²
æµ· æ»©
ç®Ģ æ´ģ
ç³»ç»Ł çļĦ
çļĦ çĶµå½±
æĺ¯ ä¸ŃåĽ½
éģµ å¾ª
åĲ« ä¹ī
èĦ ±
éĺ¶ æ®µ
éĥ ģ
åĴĮ æĮĳæĪĺ
ãĢģ âĢľ
çİ ī
äºĭ å®ŀ
æĪ¿ éĹ´
çļĦç Ł
ä¼ĺ çĤ¹
åģ ¶
æĺ¯ å¤ļå°ĳ
å¼ ±
åĪĨ åŃĲ
çļĦç¤¾ ä¼ļ
æķ°æį® åĴĮ
é¡ ¶
åı¯ä»¥ ä¸º
Ð ¾
çķª èĮĦ
cri pt
æľ µ
ä¸Ģ å®¶
è¯· ä½ł
ĠÃ Ĺ
çļĦ ä¸Ģä¸ª
ä¿Ŀ éĻ©
æľĢ æĸ°
c es
å¾Ĺ åĪ°äºĨ
æľī çļĦ
Ġ V
è¡ Ĺ
æĪĸ åħ¶ä»ĸ
çľŁ å®ŀ
å¤ªéĺ³ èĥ½
o od
çī© çļĦ
çĪ± å¥½
å¯¹ è±¡
ä¸Ĭ åįĩ
n umb
æĪĲ å°±
ä¾Ľ åºĶ
ç»´ çĶŁç´ł
åı¦ ä¸Ģä¸ª
çº¢ èī²
Ġas s
al cul
æ¨¡åŀĭ çļĦ
æİ ī
ç¾İ çļĦ
æĹ¶éĹ´ çļĦ
çľĭ èµ·æĿ¥
åĭ ķ
ä¾¿ åĪ©
ç»ĵ æĿŁ
å¼ł ä¸ī
è®¾ å®ļ
Ġ â
ä¸Ģ æ¬¾
æĪĳä»¬ å°Ĩ
èº« ä»½
ç§į ç±»
ç¼º ä¹ı
Ġprov ide
è ļ
è¡¨ æ¼Ķ
åģı å¥½
èµ ŀ
åĪ© çĽĬ
ig n
éľĢæ±Ĥ åĴĮ
æĪĳ åľ¨
ç»Ł è®¡
od e
åħ¬ ä¼Ĺ
é¥® æĸĻ
æıĲ éĨĴ
å° į
éª ĳ
o ve
éļ¾ ä»¥
æĲ ħ
æ¡Ĩ æŀ¶
èĭ ı
èĪ ¹
èĩª ä¸»
t her
è½¬ åĮĸ
éĿ¢ åĮħ
å°½ éĩı
ä½¿çĶ¨ çļĦ
âĢĶ âĢĶ
è®© ä½ł
if y
å¹¶ å°Ĩ
æľĢ éĩįè¦ģçļĦ
s o
ä¸ªæĢ§ åĮĸçļĦ
e p
Ġc ur
çŁŃ è¯Ń
âĢĿ ãĢģâĢľ
æ·± è¿ľ
å¤© ç©º
Ġne w
r t
è¯· æıĲä¾Ľ
å® Ĺ
Ġs ol
a il
éľ ĩ
Ġh ow
èĥ½åĬĽ åĴĮ
åĳĪ çİ°
çĽĳ æİ§
éĵ ħ
éĿŀå¸¸ éĩįè¦ģ
æľŁ éĹ´
åħ¨çĲĥ åıĺæļĸ
èĥ½ åĲ¦
n g
ç Ĵ
èĢ ³
è¯Ń åı¥
äº§çĶŁ äºĨ
åĨħ å¿ĥ
c re
éª ¨
åħ¬ æŃ£
çī¹ èī²
èĴ ľ
æĬ «
à ¦
èĭ ¦
åħ± æľī
åı¯èĥ½ä¼ļ å¯¼èĩ´
éĽ ħ
çĹĩ çĬ¶
èĬĤ å¥ı
æ¶Ī èĢĹ
éģµ å®Ī
å¢ Ļ
ä¸ľ è¥¿
æķ ¬
éľĢè¦ģ èĢĥèĻĳ
åĮ ¹
æĸĩ æ¡£
Ġs entence
åĲį ä¸º
çļĦç© º
æł¹æį® ç»Ļå®ļçļĦ
å¯ ¿
åĩº çļĦ
æĶ¯æĮģ åĴĮ
ä¸ª èĭ¹æŀľ
å «
æ¡ Į
ä¸įæĸŃ åıĳå±ķ
æĺĵ äºİ
æĲħ æĭĮ
åįķ ä½į
çļĦ åİĨåı²
ç§ĳ å¹»
he s
èµĦ éĩĳ
Ġt ime
æĽ¿ ä»£
å¾Ģ å¾Ģ
æĸĩæľ¬ ä¸Ń
ł éģĵ
æĥ³ è±¡
æ¬£ èµı
ent s
æĽ´ å®¹æĺĵ
åı¯ä»¥ å°Ĩ
çļĦ æĥħåĨµ
åİ ĺ
ä¸Ĭä¸ĭ æĸĩ
ãĢģ ãĢĬ
å®¤ åĨħ
n swer
çļĦ çĽ®æłĩ
çļĦ æĹ¶åĢĻ
om e
è¯ģ æĺİ
å® ľ
è´ Ŀ
åĢ Ł
çª Ĺ
Ġb o
åĩĨç¡® æĢ§
æĪĳ æĺ¯
r a
c i
æ± Ł
çļĦ ç»ĵæŀľ
æĮĩ æłĩ
çļĦ æĢ»
åĮ»çĸĹ ä¿Ŀåģ¥
çĥ Ł
Ġ åĴĮ
Ġ âĢľ
åį« çĶŁ
éº »
çĽĳ ç®¡
æ¯Ķ ä¾ĭ
ä¸Ģä¸ª äºº
âĢ Ļ
æĺ¯ä¸Ģ ä½į
æı Ĵ
èĤ ´
åħ ģ
ay s
åºı åĪĹ
çļĦ è¿ĩç¨ĭ
èħ ¿
å·¦ åı³
ou s
åŃ¤ çĭ¬
çĽĳ çĿ£
çļĦç¼ ĸ
ä¸Ģ å®ļçļĦ
èº« å¿ĥ
èĢĮ æĺ¯
ç¤¾ä¼ļ çļĦ
è§Ħ èĮĥ
åı¯ä»¥ è¢«
å¯ ¸
ir st
æ¶ µ
éŃĶ æ³ķ
æİªæĸ½ æĿ¥
å¦ Ļ
æķ° ä¸º
æľ ĥ
å¼ ¹
åħ Ń
å¼Ĥ å¸¸
åı¯ä»¥ æıĲä¾Ľ
åĴĮè° Ĳ
çłĶ åıĳ
åħ¶ ä¸ŃçļĦ
çļĦ åħ·ä½ĵ
Ġhel p
en s
éļ Ķ
çļĦ åŁºç¡Ģ
åı¯ åĨįçĶŁ
en er
è¯¦ç»Ĩ çļĦ
Ġf unction
éĵħ ç¬Ķ
ä¿ĿæĬ¤ çİ¯å¢ĥ
æĬĢæľ¯ åĴĮ
é¡¾ å®¢
ç§į æĹı
è¦ Ĩ
åĬł å¯Ĩ
ä¸İ åħ¶ä»ĸ
çĥ ¹é¥ª
æķ´ ä½ĵ
å¸ĮæľĽ è¿ĻäºĽ
Ġs um
åį³ ä½¿
è¿Ļ é¦ĸ
ç¼ĸåĨĻ ä¸Ģä¸ª
ç¾İ å¥½
çĲĨè§£ åĴĮ
æĤ ¦
åĲ« æľī
è´ŁéĿ¢ å½±åĵį
5 00
ä¸į çŁ¥éģĵ
æīĭ æ®µ
Ġ3 0
çļĦç «
çı ł
è¿ Ŀ
éĩį è§Ĩ
èģ ĺ
èħ Ĳ
æľºåĻ¨åŃ¦ä¹ł ç®Ĺæ³ķ
å¤ļæł· æĢ§
w o
çļĦç ¥
ĠT his
æį ķ
çİĽ ä¸½
å¥ ĭ
éĢļå¸¸ ä¼ļ
æĻ® åıĬ
é» İ
åħģ è®¸
åĴĮ ä¸į
à ¥
åĴĮ æľįåĬ¡
å½¢ çļĦ
çº ł
æĶ¿ æ²»
åı¯ä»¥ éĢīæĭ©
éĺ µ
oll ow
çĬ ¬
äººä»¬ çļĦ
p h
åĵ ¥
Ġb et
æ ¾
A P
Ð µ
èº«ä½ĵ åģ¥åº·
åº Ĩ
çļ® èĤ¤
Ġb ut
æľŁ å¾ħ
å± ı
å¯¹ æīĭ
ä¸ĵ å®¶
èĴ ¸
åĲį è¯į
åľ¨ å®¶
æµ ®
é£Ł çĶ¨
ä¿¡ åı·
è¿Ļ ä¸¤ä¸ª
åĴĮ ç®¡çĲĨ
æİĴ åĪĹ
çł´ åĿı
çĹħ æ¯Ĵ
Ġin to
çĶµ æ±ł
è¿ĺ èĥ½
çĽ® çļĦåľ°
Ġ <
å£ ¤
ä¼ł éĢĴ
æīĢæľī çļĦ
l es
çļĦç Ŀ
å°ı çļĦ
çº ½
çĪ ¶
æĺ¯åĲ¦ æľī
æī¾ åĩº
å§ ¿
ç´§ æĢ¥
ç»ı çĲĨ
åĿ Ģ
ou g
ä» °
ä¾ µ
åį± éĻ©
Ġspe c
æķĻ å¸Ī
æķ°æį® åºĵ
è¯ º
ç ¶
åĨħ çļĦ
re d
åį ĸ
Ġp os
9 9
èĭ Ĺ
N A
Ġf ollow
Ġad d
æķ ¢
åģ¥åº· é¥®é£Ł
ä¸Ĭ éĿ¢
çľĭ çľĭ
åİŁ åĪĻ
å± ĭ
è®º æĸĩ
r u
èĵĿ èī²
è´ ´
èĦ ı
è´¨éĩı åĴĮ
éĹ ª
ãĢĭ ãĢģãĢĬ
éķ ĩ
è¿Ľè¡Į åĪĨç±»
ä¸ŃçļĦ åºĶçĶ¨
: **
åı¯ä»¥å¸®åĬ© æĪĳä»¬
åħħ è¶³
åĬ¨ æĢģ
ä¸» äºº
ç¢ į
ç¿ Ĵ
ä» Ķ
çļĦ éŁ³ä¹Ĳ
è¹ Ī
Ġfor m
åľŁ å£¤
è¿ ħ
å½¼ æŃ¤
åĸľ å¥½
r am
åĿ ¦
ä» ª
çļĦ åŁºæľ¬
ä¸Ģ å¤©
æĺŁ çĲĥ
Ġ2 5
æī ĺ
ï¼ī ãĢģ
æĺ¾ èĳĹ
æĻļ ä¸Ĭ
æ½ ®
le ase
Ġ K
æ°´ åĪĨ
çĶµ è¯Ŀ
æ· ¡
æľī è®¸å¤ļ
è¯ģ æį®
çļĦ éĢīæĭ©
ç»´ æĮģ
rac t
è§£ çŃĶ
æľĢ å¤§çļĦ
ç´ ¯
èĪŀ è¹Ī
çĸ ²
ç¯ ®
çļĦç² ¾
åħ¨ éĿ¢
å¤§ èĩªçĦ¶
åĨĴ éĻ©
çļĦ æķ°éĩı
ä¼łç»Ł çļĦ
æıĲ ç¤º
èİ ĵ
ç¿ °
çļĦä¸Ģ éĥ¨åĪĨ
å®ŀ ä½ĵ
f f
çŃī éĹ®é¢ĺ
Ġl a
4 5
æĢİä¹Ī æł·
åĮĸ åĴĮ
åħĭ æľį
çŃĶæ¡Ī æĺ¯
éĩĮ çļĦ
s q
éĹ ²
ä»İèĢĮ æıĲé«ĺ
åįļ çī©
éĢ ²
æ ª
è¡£ æľį
åİ ¨
èĦ ¸
ä¸ĸçķĮ ä¸ĬæľĢ
at h
é ½
å® ģ
ç» ķ
åīį å¾Ģ
ç¢ İ
s um
as k
ä¸ī è§Ĵ
re e
å¿ĥ åĴĮ
çļĦçĿ ¡
ç¡® è®¤
åĩĨç¡® çļĦ
æĤ¨ å¥½
ç»ĵ è®º
å¹´è½» çļĦ
çĵ ľ
æĬĢèĥ½ åĴĮ
å¿ ł
èį £
m y
Ġl ist
èī¯ å¥½
åĦ¿ ç«¥
èĭ ¥
èıľ èĤ´
å¤± åİ»
u al
èİ ī
çŃī å¾ħ
æľī ä¸ĢäºĽ
Ġcom p
ä»¥ä¸ĭåĩłä¸ª æĸ¹éĿ¢
å¿ĥ æĥħ
ä¹Ł éľĢè¦ģ
ç² Ĵ
ä¹ ¡
æīĢ åľ¨
è°ĥ åĳ³
æľĢ å¥½
åİŁ å§ĭ
éľĢè¦ģæ³¨æĦı çļĦæĺ¯
èĩªè¡Į è½¦
äºĶ ä¸ª
J ava
åĢ į
res ult
ä¹ĭ å¤ĸ
æ° ı
ä½ĵ çİ°
çļĦ è¡Įä¸º
è¿Ļ æĦıåĳ³çĿĢ
à °
åľ¨ æŁĲäºĽ
åıĸ ä»£
é¸ £
Ġtr ans
åī ª
åĽŀçŃĶ éĹ®é¢ĺ
åĬł éĢŁ
æľĢ æĸ°çļĦ
çļĦ èĥ½åĬĽ
åī© ä¸ĭ
çº¦ ç¿°
Ġ out
æ³ °
Ġa m
åŁº éĩĳ
çļĦ é£Łçī©
æ¿Ģ åıĳ
è¿Ļ éĥ¨çĶµå½±
åĵª éĩĮ
çļĦçĿ¡ çľł
å¤§ çº¦
å¤§ åŀĭ
æĽ´ å¿«
åıį æĺł
ä¸Ĭ æµ·
o v
å ´
ä»¥ä¸ĭ æĺ¯ä¸Ģä¸ª
å®ĥ åı¯ä»¥
Ġo ver
å·¥ç¨ĭ å¸Ī
ä¸º æĪĳ
ä¸įæĸŃ åľ°
çĽ Ľ
åł Ĥ
2 1
å· Ŀ
è¶³ çĲĥ
è±¡ å¾ģ
e w
æĸĩç«ł ä¸Ń
åı¯ä»¥ èĢĥèĻĳ
ç²¾ åĩĨ
æī© å±ķ
åıĬ åħ¶
åĴĮ å»ºè®®
éĺ »
çİ¯å¢ĥ æ±¡æŁĵ
ä¹ī è¯į
æ¸ħ åįķ
Ġg iven
ä¾ §
Â °
ä»¥ä¸ĭ åĩł
Ġp o
åħį çĸ«
æ¸ łéģĵ
å£ ®
è¯į è¯Ń
å¿ĥ æĢģ
å¿ ½
åħī çº¿
ers e
åľ £
æľª çŁ¥
åı¯åĨįçĶŁ èĥ½æºĲ
çĤ ¸
çĻ Į
Ġres ult
æĪĲ æŀľ
éĴ ¢
Ġval ue
åĢ º
ä¹ĭ åĲİ
ä¸ĵæ³¨ äºİ
æĸ ¼
åĲĪ åĲĮ
æłĩ å¿Ĺ
å®¶ åħ·
èĬĤ çº¦
åĲĮ äºĭ
Ġn o
æĭ ĵ
å¯¹ äººç±»
n ing
èŀį åĲĪ
ä¸ĭ éĻį
æľĢ å¥½çļĦ
éĽ ·
Ġcur rent
çļĦ åı¥åŃĲ
çģ¾ å®³
æīĭ æľ¯
å®īåħ¨ æĢ§
æ¸© å®¤
çĶµåŃĲ éĤ®ä»¶
çļĦ äºĭæĥħ
ä¸º ä½ł
æ» ¤
ä»ĸä»¬çļĦ å¯¹è¯ĿåĨħå®¹
å¼º å¤§çļĦ
åħħæ»¡ äºĨ
æĦŁ åĴĮ
åĪ° è¾¾
å»ºè®® æĤ¨
äºº å£«
æĢ§ è´¨
çĿ Ľ
å¯ Ĵ
éĿŀå¸¸ æĦŁè°¢
åĪĩ æĪĲ
ãģ ®
çĶŁæĪĲ ä¸Ģé¦ĸ
å·´ é»İ
çĶ³ è¯·
W hat
Ġin te
or re
ä¼ĺ æĥł
å¤ªéĺ³ ç³»
çīĪ æľ¬
åĪĽ ä¸ļ
äºĨ è®¸å¤ļ
æķ£ æŃ¥
èķ ī
æł¹æį® ä»¥ä¸ĭ
æŃĮ è¯į
åıĺ æĪĲ
æ½ľ åĬĽ
æĬ« èĲ¨
c ur
å¼º çĥĪ
çº½ çº¦
æĺ¯ å¦Ĥä½ķ
æĺ¯ä¸Ģ åĲį
çļĦ åıĺåĮĸ
ç´§ å¼ł
Ġ ro
ä¸į è¶³
ord s
æľĢ é«ĺ
éĩį éĩı
æŁ¥ æī¾
çļĦ åİŁåĽł
ç§ Ł
ĠS t
æ¿Ģ åĬ±
in k
ç¬¬ ä¸Ģä¸ª
__ __
æ©Ļ åŃĲ
çī© ç§į
èı Į
b le
å®¢ æľį
é ł
y p
Ġp re
ä¸¥ æł¼
èĢĥ è¯ķ
æłĩ çŃ¾
ä¸ĵä¸ļ çļĦ
åı¯ä»¥ æĺ¯
å½¢ å®¹
am ple
åĭĩ æ°Ķ
Ġman y
C h
æķ ¸
è§Ĩ ä¸º
é¼ ł
è¿Ĳ çĶ¨
ä½ĵ éĩį
äºĭ çī©
æĪĳ æĹłæ³ķ
g et
Ġ up
é¦Ļ èķī
äº ¿
at ing
ä¸Ģ ç³»åĪĹ
åĶ ¯
numb ers
éĩį çĤ¹
ä¸¤ ç§į
å½ĵåľ° çļĦ
é¢ĨåŁŁ ä¸Ń
åĶ Ĳ
çº ¤
è·Ł è¸ª
åģı è§ģ
æĪĳ ä¹Ł
éħĴ åºĹ
éģĩ åĪ°äºĨ
å¿ĥçĲĨ åģ¥åº·
Ġ >
é»Ħ èī²
ä¸ŃæıĲåıĸ åĩº
æ³ķ åĽ½
and om
èĳ ¡
åįļçī© é¦Ĩ
è¿Ļ æľīåĬ©äºİ
åĵģ ç§į
æµª æ¼«
åľ°çĲĥ çļĦ
åĨ ł
è®¤ çľŁ
ä¿® å¤į
form ation
{ "
2 3
å½± åĥı
Ġe m
at er
å¾Ī æľī
åĮ¹ éħį
ä½ł è§īå¾Ĺ
() `
æĸĩ æĺİ
èĲ Ħ
åºĶè¯¥ æĺ¯
éĩĬ æĶ¾
Ġ à¤
éķ¿ çļĦ
åįģ åĪĨ
çī¹ æĢ§
èĳ¡ èĲĦ
æĪĲ ç»©
å¤§ èĦĳ
ä»¥ æıĲé«ĺ
çļĦç ±
è·ĳ æŃ¥
Ġs p
ic t
ä¸ª ç³ĸæŀľ
æ¼ ı
åĴĮ æķ°æį®
ç®Ģ çŁŃ
æĹ¶ åħī
ä¹ĭéĹ´çļĦ åħ³ç³»
å±ħ æ°ĳ
æĳ ©
éĢĤ çĶ¨äºİ
çļĦçŁ Ń
éĿŀå¸¸ æľī
èĤ º
Ġk now
èıľ åĵģ
Ġm y
çĪ± çļĦ
å¦Ĥ æŃ¤
** .
åľ¨ è¿Ļ
ar i
en g
Ġd es
l o
è¢« è®¤ä¸º
æĺ ¨
ç¾¤ ä½ĵ
l ow
å¾Ĺ åĩº
æŃ ¦
èģĮ ä½į
ä¸Ģ èĩ´
æ¡ ¥
åĪ ¸
erm ine
è¯· æ±Ĥ
å¼ķ åıĳ
ä½ĵ èĤ²
èľ Ĥ
çĶŁæ´» çļĦ
æĦŁ çŁ¥
å¸¦æĿ¥ çļĦ
åĨį æ¬¡
åħ «
ä¹ĭ å¤Ħ
å¥³ åŃ©
âĢ ¦
éĿ¢ è¯ķ
æµĭ éĩı
æıĲä¾Ľ ä¸Ģä¸ª
æįŁ å¤±
å®ļ åĪ¶
å°ıæĺİ æľī
ä¼ Ļ
èĻļæĭŁ çİ°å®ŀ
ç¬¦ åı·
ĠI f
Ġ æĺ¯
å¹³åĿĩ åĢ¼
åĴĮ æĥħæĦŁ
èį ·
èĸ Ħ
Ø §
æĺİ çĻ½
ä½ł å¯¹
Ġab out
çļĦç¤¾ äº¤
ib le
æİ ĺ
çī©çĲĨ åŃ¦
æķ° åĪĹ
ä½Ĩ ä¸į
åĪº æ¿Ģ
' t
ç ĺ
æ¦Ĥ çİĩ
ç§į æ¤į
çŃī åĽłç´ł
çİ¯ä¿Ŀ çļĦ
ç¼ĸç¨ĭ è¯Ńè¨Ģ
Ã ©
Ġthe ir
åĢĴ åħ¥
æĽ¿ æį¢
æĪĳä»¬çļĦ çĶŁæ´»
äºĭ é¡¹
æĦ¿ æĦı
åĴĮ æĬĢæľ¯
æĵ İ
it s
ä¼¼ ä¹İ
æĪĺ äºī
èĬĤ æĹ¥
ä¸ ¦
å¼ķ æĵİ
åĪĨ æĪĲ
äº§ ä¸ļ
åĵª ç§į
å®ļ ä½į
Ġon e
æ¯ı æ¬¡
åĽ¾ çīĩ
orre ct
åĩº è¡Į
äºº éĻħ
è°ĥ èĬĤ
åħ Ķ
éģĵ è·¯
ä¸ ģ
æľ¬ æĸĩ
æĦī å¿«
åİĺ ç±³
çļĦ æĸĩæľ¬
y s
ä½ł åľ¨
æ¯ı ä¸Ģ
éĢīæĭ© éĢĤåĲĪ
å¾Ī å¤§çļĦ
è¡ ĵ
åıĳå±ķ çļĦ
çŁ¥ åĲį
åı¦ ä¸Ģ
åŀĥåľ¾ åĪĨç±»
æİ¢ éĻ©
çĹħ äºº
åįı è°ĥ
é© ±
è¯· ç»ĻæĪĳ
æģ ©
èģ ª
Ġ Ċ
Ð ¸
è¢« ç§°ä¸º
çªģ çĦ¶
ä½ł æľĢè¿ĳ
é«ĺ è´¨éĩı
Ñ Ĥ
è¯· æ³¨æĦı
åī ¯
æĪĳ åĸľæ¬¢
ï¼Ł âĢĿ
å¹ «
åĲ ī
çļĦç Ĭ
ĠC h
åı¯èĥ½ æĢ§
æ³ Ħ
å¡ ŀ
èĭ± åĽ½
å®ĺ æĸ¹
çļĦ äº§åĵģ
è¦Ĩ çĽĸ
æĺİ æĺ¾
æķ°æį® è¿Ľè¡Į
äº ¡
ä½ĵ ç³»
å®ĥ æĺ¯
ä½ł æľīä»Ģä¹Ī
pt ions
ä¸įä»ħ ä»ħ
æĶ¶ çĽĬ
ï¼ļ "
å§ ĵ
ĠH ow
æĺŁ æľŁ
ig h
éļľ ç¢į
è¿Ĳ ç®Ĺ
ä½¿çĶ¨ äºĨ
er t
éĻ Ĩ
èµ ĭ
è¿ħ éĢŁ
9 0
æĴ °
æ¼Ķ åĳĺ
è½» è½»
åł ¡
çļĦ ä»»åĬ¡
å¹¶ æ²¡æľī
at her
ä½ľä¸º ä¸Ģä¸ª
é¢Ħ æĬ¥
çĪ Ĩ
æĸĩ æ¡Ī
ç§ĳæĬĢ çļĦ
éĻ¤ ä»¥
æĿĥ åĪ©
æŀĦ æĪĲ
éĢīæĭ© åĲĪéĢĤçļĦ
æĦŁ æŁĵ
çĽ Ĵ
åıª èĥ½
T his
åĴĮ çĲĨè§£
we en
æ¡Ī ä¾ĭ
è¿ ª
çŁ ¿
Ġqu est
å®¶ çļĦ
æŃ£ éĿ¢
çļĦç¼ĸ ç¨ĭ
è¢« å¹¿æ³Ľ
åĲ¸ æĶ¶
ç ŀ
æĿ Ģ
åıĹæ¬¢è¿İ çļĦ
Ġcom m
èĦ ī
å®īåħ¨ åĴĮ
æĹ¶ åĪ»
éĤ£ éĩĮ
éĻĲ äºİ
ä¼ł è¾¾
ç§ Ĵ
Ġt wo
çļĦ æĥħåĨµä¸ĭ
ĠÃ ·
æĮĩ ä»¤
åıĹ ä¼Ĺ
æĽ¾ ç»ı
æĬķ åħ¥
ä»¥ä¸Ĭ æĺ¯
å°± åı¯ä»¥
çĲ ´
å¹« åĬ©
ç¼º çĤ¹
æ¬§ æ´²
å®ŀéĻħ ä¸Ĭ
çļĦ ä¸ĢäºĽ
å¸ Ŀ
è¿Ļ æ¬¾
çĶ °
å¹¿æ³Ľ çļĦåºĶçĶ¨
Q L
æ· ĭ
é£İ æĻ¯
å¹´ æĿ¥
èµĦ äº§
åĲ ¹
åŃ¸ ç¿Ĵ
æİ¥ è§¦
è¿Ĳ è¾ĵ
ĠP ython
ä¸ĢäºĽ åħ³äºİ
ç´ «
å®Ĺ æķĻ
sq rt
Ġg r
Ġg o
å¤ı å¤©çļĦ
éĺ Ķ
çļĦç± »
ð Ł
e ct
åĵ º
åħĪ çĶŁ
è¡¨çİ° åĩº
éĶĢåĶ® é¢Ŀ
or s
2 2
è· ĥ
è¿Ļ åı¯èĥ½
çº¤ ç»´
ä¸ŃåĽ½ çļĦ
202 1
æĪ ´
åĬł ä¸Ĭ
Ġp art
åĲĮ æł·
é¢Ŀ å¤ĸ
as ed
æĸ° åŀĭ
æľŁ æľĽ
Ġth an
èģª æĺİ
åıĳ æĺİ
æĹł éĻĲ
çļĦ ä»·æł¼
èĢĮ è¨Ģ
åĪ© æ¶¦
ĠH e
åľº åĲĪ
åįı è®®
æĹ© ä¸Ĭ
äºº åı£
Ġit s
éĥ½ èĥ½
æıĲ åĪ°äºĨ
åĬŀ åħ¬
æĹ §
æ¸¸ å®¢
æĹ¶ çļĦ
æĭĽ èģĺ
ĠĠ Ġ
ä½ł æĺ¯
ä¼ ¸
åŁ ĥ
è·¯ å¾Ħ
å·¥ èīº
ä¼ļ å¯¼èĩ´
çļĦ ä¸»
è´§ å¸ģ
Ġbet ween
è£ ¤
æĺİ å¤©
ä¸ºæĤ¨ æıĲä¾Ľ
o y
æĹłè®º æĺ¯
éĢ ĥ
ä¾¿ æį·
ment s
ä½Ĩ æĪĳ
åĮĸ åĲĪ
å°ı åŃ¦
æĿ¥ æıĲé«ĺ
Ġin formation
çĶŁ æĹ¥
ol d
çĸ« èĭĹ
çļĦçľ Ł
åĭĩ æķ¢
åĳ½ ä»¤
åĪ ł
æĤ ²
ç¾ Ĭ
çŃī æĬĢæľ¯
Ġe v
æĮĳæĪĺ åĴĮ
æľīæīĢ ä¸įåĲĮ
çı ¾
å¥ĸ åĬ±
æĤ ł
åıĮ æĸ¹
åŃ¦ èĢħ
Ġw ork
u te
åľ¨ è¿ĻéĩĮ
or y
æŀģ ç«¯
çĶ· æĢ§
æĢ ķ
éĩİ çĶŁ
éĽ Ħ
éĺ ´
åĮ Ļ
åŃĺåľ¨ çļĦ
åĵģ å°Ŀ
ar r
d ay
c y
éģ İ
Ġc ost
é¢ĳ çİĩ
èĲ Ŀ
é¸¡ èĤī
å·² çŁ¥
ç®¡çĲĨ åĴĮ
æ´ Ľ
ä»ĸ åľ¨
Ġf irst
at ive
c k
è¡Ģ åİĭ
Ġp e
èĩ³åħ³ éĩįè¦ģ
å°½ åĬĽ
ç£ ģ
Ġex p
äººå·¥æĻºèĥ½ çļĦåıĳå±ķ
åı¤ èĢģ
æķı æĦŁ
æł¹æį® èĩªå·±çļĦ
æŃ ī
çļĦç¨ ĭ
Ġy ear
ä¸ĭ åĪĹ
åĬ¨ è¯į
éķ¿ æĹ¶éĹ´
è®¡ç®Ĺæľº ç§ĳåŃ¦
é£ ĺ
å¤ļ åħĥ
éħį ç½®
Ġbo th
åĵį åºĶ
åľ Ī
è¯¢ éĹ®
Ġ1 6
é«ĺ çº§
ä¼ĺåħĪ çº§
åŁİå¸Ĥ çļĦ
ä¼¤ å®³
å°ı æĿİ
æĪĳ ä¸ºæĤ¨
æĪĲåĬŁ çļĦ
å¼ķ åĬĽ
æĤ ī
éĩĳ å±ŀ
åĵº ä¹³
ell o
æľī ä»»ä½ķ
æľĢ å°ı
äºĴ çĽ¸
åĪĨ è§£
å¤ı æĹ¥
æĳ ĩ
ä¼ļ å¯¹
å® ¾
å¾Ī é«ĺåħ´
çķĻ ä¸ĭ
è¿ĻäºĽ éĹ®é¢ĺ
åĳ¨ æľŁ
Ð ½
æ¯ ķ
Ġ1 8
åŁºäºİ ä»¥ä¸ĭ
æĪĳ æľĢè¿ĳ
æĩ Ĥ
æĩ ī
æī© å¤§
å®ĮæĪĲ ä»»åĬ¡
åĴĮ åŃ¦ä¹ł
çļĦçĶŁæ´» æĸ¹å¼ı
åĴĮ æĹ¶éĹ´
çŁ ©
è½¬åĮĸ ä¸º
ä»ĸä»¬ ä¹ĭéĹ´çļĦ
å¿ §
alcul ate
å®Į åĸĦ
æĬ ĳ
çļĦç ´
' re
å®ŀ çĶ¨
st ring
ä¸į éľĢè¦ģ
ä¸ªäºº çļĦ
è° Ĭ
ä¸ ĥ
åľ° ä½į
å¾Ī å¥½çļĦ
æ²Ļ æ»©
çĽ¸ åĬł
éĻ ·
æ²»çĸĹ æĸ¹æ¡Ī
çĭĹ çĭĹ
ç²¾ ç¡®
ä¿¡ ä»°
è¯Ńè¨Ģ æ¨¡åŀĭ
æĿ¥ è®¡ç®Ĺ
æĽ´ æľī
èĤ ¯
æĺ¯ éĿŀå¸¸éĩįè¦ģçļĦ
åĪĨ ç»Ļ
æľ¬ èº«
æĸĩåĮĸ çļĦ
æĮĩ åįĹ
du ct
çº ·
æ¯ «
Ġ ãĢĬ
æĽ´ ä¸º
æħ¢ æħ¢
æ¶ Ĥ
å¹¶ å°Ĩåħ¶
ç»Ļ äºĪ
ä¸ĭéĿ¢ æĺ¯
çļĦç¾İ é£Ł
åĨ Į
å°¤åħ¶ æĺ¯
è½ ¨
å¤§ åľ°
æ² ¿
åıį æĢĿ
" ï¼Į
ç²¾ åĬĽ
ç¦ ģ
çĪ ½
éĢļå¸¸ æĺ¯
æķ°åŃĹ åĮĸ
äºĭ ä¸ļ
æ°¸ è¿ľ
çļĦ è¿ĩç¨ĭä¸Ń
} \)
ä¸ª ä½ĵ
å¹¶ ä¸º
Ġ5 0
å¿ł è¯ļ
er g
Ġf e
é£Ł è°±
æĬķèµĦ èĢħ
çº ¯
èıľ åįķ
çļĦç ĸ
Ġus e
a h
å¸¸ å¸¸
å±ı å¹ķ
ar s
äºº ä½ĵ
Ġs y
il ity
çĸ« æĥħ
çļĦ è®¾è®¡
æ¼Ķ è®²
Ġt erm
åĽ¾åĥı è¯ĨåĪ«
æī ¬
æķ°åŃ¦ é¢ĺ
åľ° åĿĢ
éĢļ ä¿¡
æŁ ł
Ġass ist
èĮĥåĽ´ åĨħ
2 8
ä¼Ļ ä¼´
å¹´ ä»£
ä½ł ä¼ļ
Ġ ì
å° ¿
æĻ® éĢļ
æĭħ å¿ĥ
Ġwh at
æĢİ æł·
åĴĮ å·¥ä½ľ
åı¯ä»¥ åĩıå°ĳ
et h
m a
æľį è£ħ
ĠI t
Ġh is
æĪĳæĥ³ çŁ¥éģĵ
è´¦ æĪ·
åĴĮ éľĢæ±Ĥ
åŃ¦ æľ¯
è·¯ çº¿
èµ ¢
å¹³ éĿ¢
ç©¿ çĿĢ
åī ²
ow n
1 000
æ® ĸ
æª ¬
Ġ1 9
er v
åıĺ éĿ©
åİĭåĬĽ åĴĮ
çļĦ ä¸Ģç§į
æ±¤ å§Ĩ
ä¹ ±
æĵ ļ
çļĦ åĢ¼
æĤ ¬
a us
è¡¨è¾¾ äºĨ
ä»¿ ä½Ľ
æ© Ł
ħ åĬĽ
è¯ĬæĸŃ åĴĮæ²»çĸĹ
ç½ ļ
çģµ æĦŁ
èĬ Ŀ
æĦıè¯Ĩ åĪ°
é« Ķ
} $
e x
Ġe le
åĪĻ æĺ¯
Ġres pon
Ġfollow ing
åĴ ª
og le
æģ ĭ
å§ ľ
å¤± è´¥
Ġin t
ä¼ł è¾ĵ
æŁĲ ç§į
çļĦç¥ ŀ
åĴĮ è¡Įä¸º
Ġequ ation
å°± ä¼ļ
çļĦ æĸ°
L uc
å¤ľ æĻļ
åı¯ä»¥ ä»İ
åŁºäºİä»¥ä¸ĭ è§Ĵèī²ä¿¡æģ¯
è¿Ĳ èĲ¥
éĽĨ æĪĲ
åıĳ éĢģ
æ·± åĳ¼åĲ¸
çģ Ń
æ°´ çļĦ
å®ĮæĪĲ ä¸Ģæ®µå¯¹è¯Ŀ
æŁł æª¬
åĪł éĻ¤
æĢ§ æł¼
åıĭ è°Ĭ
ç¦» å¼Ģ
æ¼ Ĥ
^ {
å¯Į åĲ«
202 2
è³ ĩ
ç»Ļä½ł ä¸¤ä¸ª
æľĢ åĸľæ¬¢çļĦ
çģ °
äºĮ æ°§åĮĸ
Ġd ata
çĪ ¬
çļĦ æľºä¼ļ
æ°§ æ°Ķ
Ġs ub
o ogle
åĵ ¦
ç¨ į
ĊĠĠ ĠĠĠĠ
åĽŀ å¿Ĩ
åĴĮ ä½¿çĶ¨
å¹´è½» äºº
ä¸Ģ æĿ¡
è¿Ļä¸ª åı¥åŃĲ
åĿĩ è¡¡
è² Į
å¤§ å¤ļ
åĮ» éĻ¢
åķĨ åĬ¡
å¿ĥ çģµ
Ġdet ermine
æ·±è¿ľ çļĦå½±åĵį
çĮ İ
Ġd is
è®© äººä»¬
å½ĵ ä»Ĭ
æĸĩæľ¬ ä¸ŃçļĦ
æĹł äºº
çĻ ¼
äºĭ æķħ
è¦ģ æ³¨æĦı
å®¢æĪ· çļĦ
åħĪ è¿Ľ
åĪĽéĢł åĬĽ
å·²ç»ı æĪĲä¸º
ä¼ Ĭ
éĿŀå¸¸ å¥½
èĲ¥éĶĢ çŃĸçķ¥
æķ° åĢ¼
è¿ĩ äºİ
èĬĤ èĥ½
ç¾İåĳ³ çļĦ
ç ·
çļĦç³ ĸ
éĸ ĵ
è°ĥ çĶ¨
è¯ķ åĽ¾
ver y
ä¼ł æĦŁ
éĢĤ éĩıçļĦ
çĶŁæĪĲ ä¸Ģç¯ĩ
æ»¡æĦı åº¦
E m
æ¯ı ä¸Ģä¸ª
æ²Ļ æĭī
çĲĨ å¿µ
åľº æīĢ
Ġdo es
Ġt ask
åĮº åĪ«
åı£ è¯Ń
E R
æĦī æĤ¦
H ello
æĳ Ĩ
æ¶Ī æģ¯
åģļ å¥½
ä¸į ç¡®å®ļ
å¼ķ å¯¼
èº«ä½ĵ åĴĮ
æĭ¼ åĨĻ
åľ¨ ä½¿çĶ¨
æ´ĭ èĳ±
åį° è±¡
æĻ ´
æµģ çķħ
j ect
æ¦Ĥ æĭ¬
çļĦ é¢ľèī²
åŃ¦ ç§ĳ
è¾ĵåĩº ç»ĵæŀľ
Ñ Ģ
æľī æľº
7 0
çĶ¨æĪ· ä½ĵéªĮ
ç»ĦæĪĲ éĥ¨åĪĨ
æĹ¥å¸¸ çĶŁæ´»ä¸Ń
Ġ ke
å¹² æī°
ä¿¡ çĶ¨
çļĦ ä½įç½®
è´ ·
éĻĦ è¿ĳ
æľīæīĢ å¸®åĬ©
æĿ¥ çľĭ
æĿ¥ è§£åĨ³
æī £
åŃ©åŃĲ ä»¬
æĮ ĸ
èĬ± è´¹
pt ion
Ġsh ould
åŃĲ åĴĮ
ç»Ļä½łä¸¤ä¸ª è§Ĵèī²ä¿¡æģ¯
ç»Ļä½łä¸¤ä¸ªè§Ĵèī²ä¿¡æģ¯ å¦Ĥä¸ĭ
æĲ º
çº ¹
æľ¬ è´¨
Ġ å¦Ĥæŀľ
åı¯ è¡Į
Ġd if
æ© Ħ
ç¨ ®
à ®
ä¼łæĦŁ åĻ¨
åĪĨ åĪ°
å¹¿æ³Ľ çļĦ
åĪ ·
çİ¯å¢ĥ ä¸Ń
ä¿ Ĺ
ãģ Ļ
ç¥ŀç§ĺ çļĦ
è¿ľ ç¨ĭ
Ġ\) .
Ġs tep
æĮĩ åĩº
æľįåĬ¡ åĻ¨
æīĢéľĢ çļĦ
éĻ ª
ä¹Ł åı¯èĥ½
åĻ ª
åĮĸåĲĪ çī©
å¹¶ ä¸įæĺ¯
çĶŁæĪĲ ä»ĸä»¬ä¹ĭéĹ´çļĦ
oug h
çļĦçľ ĭ
è¦ģæ±Ĥ å¯¹è¯ĿåĨħå®¹
æ¶µ çĽĸ
è¯¦ç»Ĩ ä¸°å¯Į
Ġus ing
è¦ģæ±Ĥå¯¹è¯ĿåĨħå®¹ è¯¦ç»Ĩä¸°å¯Į
Ġnumb ers
æ¬ º
Ġm in
åĴĮ æĬĢèĥ½
èĬ± åĽŃ
æıĲ åīį
åĩ Ŀ
ot al
ç¼ ĺ
c d
Ġp h
Ġw orld
æĪĳ è§īå¾Ĺ
è®¡ç®Ĺæľº è§Ĩè§ī
é¡µ éĿ¢
éĢĲ æŃ¥
çī¹åĪ« æĺ¯
éĻĪ è¿°
è¿Ļ æľ¬ä¹¦
Ġd og
Ġch ar
çİ¯å¢ĥ çļĦ
æĻ® éģį
æĿİ æĺİ
æĹ© é¤Ĳ
æľĢ éĢĤåĲĪ
å¼Ģ å¤´
çļĦçĬ ¶
æıı ç»ĺ
å¿ĥ èĦı
å¤§ æķ°æį®
è®° ä½ı
åĲĪ æ³ķ
åĨĻ ä¸Ģä¸ª
æ¢ °
äººå·¥æĻºèĥ½æĬĢæľ¯ çļĦ
è¿Ļæ®µ æĸĩæľ¬
ä»¥ä¸ĭ æŃ¥éª¤
æĪĳä»¬åı¯ä»¥ ä½¿çĶ¨
" )
ä¸į å¤ª
éĩĳ é¢Ŀ
åĴĮ ä¼ĺåĮĸ
Ġd iv
èĥ ¸
èįī èİĵ
åĴĮ å¯¹
åĵºä¹³ åĬ¨çī©
ç¬¬äºĮ ä¸ª
ers on
ç«ĭ åį³
ĠP ro
åı¯ä»¥ çĶ¨
Ñ ģ
èµĦæºĲ çļĦ
çĬ¯ ç½ª
in ce
è¾¹ çķĮ
çī© æµģ
çŃ Ľ
çĶŁåĳ½ çļĦ
ä½ł æľīæ²¡æľī
æŀ Ŀ
åľ°åĮº çļĦ
çĮ ª
æ¦ Ħ
åķ ı
æĦıå¤§åĪ© éĿ¢
æ©Ħ æ¦Ħ
åĽ¢éĺŁ åĲĪä½ľ
n ame
å£ ģ
Ġthe y
7 5
å¹¶ ç¡®ä¿Ŀ
st r
å¼ºè°ĥ äºĨ
èģĮ åľº
èĥ¡ æ¤Ĵ
çīĽ èĤī
çļĦ åħ³ç³»
Ġ åĪ¶å®ļ
æĺ¯ æĪĳä»¬
å¤ĸ è§Ĥ
æĺ¯ éĢļè¿ĩ
è£ ģ
å¼º åº¦
é«ĺæķĪ çļĦ
â Ħ
æ¸ħ æ´Ĺ
åį° åº¦
äºĮæ°§åĮĸ ç¢³
æĹĭ å¾ĭ
Ġo ther
id es
åĩĨç¡® æĢ§åĴĮ
Ġre m
åľŁ åľ°
ä¹Ł åľ¨
çĽ ¾
ä»İ æĸĩç«ł
ä»ĭç»į äºĨ
çļ ĩ
åıª è¦ģ
ç£ ¨
é¸ Ń
ä»ĸ äººçļĦ
çĥŃ æĥħ
åľ ĭ
è¾£ æ¤Ĵ
çİ¯ä¿Ŀ æĦıè¯Ĩ
å¾ĭ å¸Ī
å¿ĥçĲĨ åŃ¦
è±Ĩ èħĲ
3 5
åĪ Ģ
çľŁæŃ£ çļĦ
ä¸Ģ é¡¹
åºĨ ç¥Ŀ
åĲĪçĲĨ çļĦ
èī¾ ç±³
èµĦ æĸĻ
åį §
å·¥ä½ľ æķĪçİĩ
p ro
æ¡Ī ä»¶
åĪĨç±» ä¸º
éľĢè¦ģ è¿Ľè¡Į
å¤ĸ éĥ¨
åıĸå¾Ĺ äºĨ
ä¸Ģ å¼ł
èĩªçĦ¶ çģ¾å®³
æĪĳ å¸ĮæľĽ
çļĦçģ µ
ä¸Ģ éģĵ
è¿ĳ å¹´æĿ¥
Ġ$ $
ä»ĭç»į ä¸Ģä¸ĭ
Ġs c
æĪĳ å¯¹
ve l
å±Ĥ æ¬¡
çļĦçľĭ æ³ķ
ä»¥ä¸ĭ åı¥åŃĲ
çİ© åħ·
Ġw ould
æĽ´å¥½åľ° ç®¡çĲĨ
ä¹ Ļ
çļĦ æ´»åĬ¨
æ° ¢
å¹ ½
å² ¸
ä¼ ¯
our s
ç¢ º
éľĢè¦ģ åľ¨
Ġc re
èĬĤ çĤ¹
å² ©
å¦ Ĩ
çĶµ åĻ¨
i an
æİ¨ åĩº
Ġg ener
å¢ ¨
å®ģ éĿĻ
éĩį å¤§
çķ ¶
Ġs et
æİ¨èįĲ ä¸ĢäºĽ
æ°´ ä¸Ń
åĴĮ çĽ®æłĩ
è¿Ļæł· åı¯ä»¥
v al
é¡ Į
ä¼ĺ è´¨
ä¸ĭ åįĪ
åŁºæľ¬ çļĦ
ç»Ļåĩº ä¸Ģä¸ª
ä¸į åĨį
åıĤ è§Ĥ
ãĢĭ ãĢĤ
st em
åº¦ è¿ĩ
è ĺ
å¼ ¦
çļĦ åŁİå¸Ĥ
Ġ\( \
ç»ĵæŀĦ åĴĮ
æµ ¸
æĴ Ĵ
L E
åĽłä¸º å®ĥä»¬
å¥½ å¤Ħ
çĥ¤ ç®±
èĪĴ éĢĤçļĦ
åĽĽ ä¸ª
Ġ z
u es
çļĦ è¯Ńè¨Ģ
é¢ĨåŁŁ çļĦåºĶçĶ¨
éģĹ äº§
åģ¥åº· åĴĮ
Ġ\ ]
æĽ´ é«ĺçļĦ
âĦ ĥ
åħ¬åħ± äº¤éĢļ
: -
æŃ£ å¼ı
" ãĢĤ
çļĦ è¯Ŀ
åĲĳ éĩı
çªģ åĩº
éĶ ģ
åĪ¶ åº¦
r ight
Ġe l
åħ³ éĹŃ
æĪĳ æ²¡æľī
ä¼ Ł
çļĦ å¤§
æ¬ ²
æĹ¥å¸¸ çĶŁæ´»
æľī éĻĲ
æµ ı
çļĦ çī¹çĤ¹
åĴĮ æ°´
oc k
åĶ¯ ä¸Ģ
æĥħ å¢ĥ
æłĩ è®°
æĿİ åĽĽ
é»ĳ èī²
ä¸» è§Ĵ
Y ou
è§£éĩĬ ä¸Ģä¸ĭ
åł µ
æµı è§Ī
åĬĽ äºİ
ä»ĸä»¬ åľ¨
èº«ä½ĵ çļĦ
çŃī å¤ļä¸ª
å½ĵ ä½ł
Ġ æķ°æį®
ç¢ Ĺ
æĵ ħ
i o
æĬ µ
ut ion
ç¿»è¯ĳæĪĲ ä¸Ńæĸĩ
æ°´ åĴĮ
ow er
ä¹Ł å¾Ī
è£ Ĥ
äººå·¥æĻºèĥ½ åı¯ä»¥
å§ĵ åĲį
Ġ å»ºç«ĭ
åį ľ
G P
åĳ¨ æľ«
çĽ Ī
äºº åľ¨
ä»¥ å¸®åĬ©
èīºæľ¯ å®¶
èĢĥèĻĳ åĪ°
åĨħ åŃĺ
åĪĹè¡¨ ä¸Ń
å¯¿ åĳ½
åı¯ä»¥ å°Ŀè¯ķ
æĪĳ åĢĳ
con d
æıĲä¾Ľ æĽ´å¥½çļĦ
é£ŀ æľº
Ġ= =
å®¢æĪ· æľįåĬ¡
. ãĢĬ
å§ĭ ç»Ī
ç³ Ĭ
éħ ª
å¸¸ çĶ¨çļĦ
ä»Ķ ç»Ĩ
éĤ£ ä¸ª
æĥħæĦŁ åĪĨæŀĲ
åĬĽ åŃ¦
Ġan y
çĽ Ł
æĬĢæľ¯ çļĦåıĳå±ķ
éģ Ń
äºº æķ°
æ» ´
åĽŀ å½Ĵ
Ġre l
ãĢĤ âĢľ
è´ ¸
åĸ »
è¿Ľè¡Į äºĨ
å¤§å¤ļ æķ°
åĹ ¯
æľī çĤ¹
éĶħ ä¸Ń
æļ Ĥ
Ġspec ific
æı ´
æĸ ľ
å©ļ ç¤¼
éĤ Ģ
Ġr ange
åĲĮ åŃ¦
é ī
åĪĿ åŃ¦èĢħ
è´ «
åº¦ åģĩ
Ġsu ch
Ġ1 3
åı¯ä»¥å¸®åĬ© åĮ»çĶŁ
è¿ĺæľī åħ¶ä»ĸ
S cript
æĮ Ĥ
ç¯® çĲĥ
åİŁ åŃĲ
åĬł çĥŃ
æĻ ¨
æĺ¯ä¸Ģ éĥ¨
æ¬¡ æķ°
Ġ ä½łå¥½
ç§ĳ æĻ®
Ġ- --
çĮ« åĴª
çľ¼ çĿĽ
éĢīæĭ© ä¸Ģä¸ª
Ġpos s
è¿ «
ä¸Ģ æľ¬
Ġthe re
åŃĲ éĩĮ
è¾ĥ é«ĺ
çļĦçĭ ¬
) ^
åĪļ åĪļ
ä¸Ģ åľº
æľº éģĩ
Ġm ult
èĩ´ åĬĽäºİ
o ple
æİ¥ æĶ¶
Ġ6 0
åĴĮ èµĦæºĲ
å¤Ħ äºİ
äººéĻħ åħ³ç³»
çĶ¨ éĢĶ
æĿ¥ çļĦ
åįı åĬ©
çĳ ŀ
æĽ ¼
éĢ Ĭ
an a
æī «
çĶŁæĪĲ çļĦ
æı Ń
è¾ĥ ä½İ
æķĻèĤ² åĴĮ
èİ «
æĬĢ è¡ĵ
çĸ² åĬ³
b y
u ll
ä¹ĺ ä»¥
åĮºåĿĹéĵ¾ æĬĢæľ¯
æ³¢ åĬ¨
æľī æĹ¶åĢĻ
f ore
æ³ķ è¯Ń
åĪĽ æĸ°çļĦ
éģĹ ä¼ł
Ġpo int
é² ģ
èĬ ³
ĠF inal
Ġwhe re
\ (
è¢«è®¤ä¸º æĺ¯
Ġc o
æ£ ĭ
æĻ Ĵ
ãĢĭ ï¼Ī
éī ´
æĶ¾ å¼ĥ
ä¼ĺç§Ģ çļĦ
çħ İ
è¯Ħ åĪĨ
æĪ ª
ä½Ĩä¸į éĻĲäºİ
c ount
å¼º åĮĸ
c ent
S QL
çļĦ åĬŁèĥ½
åıĸ åĩº
é¢Ħ æľŁ
ä¼ĳ éĹ²
ä¹Ĳ è¶£
åŃ¦ä¹ł æĸ°
æ²» çĲĨ
ä¸Ģ å¹´
æĦŁ æĥħ
ang u
æĢ ª
æķħ éļľ
èŃ¦ å¯Ł
åĮħ å®¹
è¿ĺ åī©ä¸ĭ
éĵ º
æĶ¯ åĩº
ol og
çŃī ä¿¡æģ¯
æĪĳä»¬ ä¼ļ
æ¥ ļ
iz e
çļĦç¾İ å¥½
åĮħæĭ¬ ä½Ĩä¸įéĻĲäºİ
å¦ĤæŀľæĤ¨ éľĢè¦ģ
éĥ½ åľ¨
ç«ŀäºī å¯¹æīĭ
å±ŀ æĢ§
çļĦç Ļ
æıĲä¾Ľ æĽ´åĬł
çĩĥ æĸĻ
Ġ ä¸ª
çĤ¹ åĩ»
è° ľ
æ¸©å®¤ æ°Ķä½ĵ
C T
çĻ½ èī²
æ³Ħ éľ²
èĬ Ĵ
æĸ°éĹ» æĬ¥éģĵ
åı¯éĿł æĢ§
è§Ĥ çľĭ
ble m
ä¸ĸçķĮ çļĦ
æĭ Ķ
Ġc ol
æĮĸ æİĺ
æµģ éĩı
Ġin cl
åĪĽéĢł åĩº
at ure
æ¡ ĥ
eng th
æł· æľ¬
çļĦ æķĪæŀľ
çº¦ ä¸º
æĥħæĦŁ åĴĮ
' m
å°ı åŀĭ
Ġ1 1
ä¿¡æģ¯ åĴĮ
è¡¨è¾¾ å¼ı
éĥ½ åı¯ä»¥
æĴ ĳ
ä»¥ åħ¶
ä¹ Ŀ
ä¿Ŀ çķĻ
o se
Ġb l
å® ¿
è° ¨
re turn
å¦Ī å¦Ī
ä½ł æľī
å·¨ å¤§
å¹¿æ³Ľ åºĶçĶ¨
çĽ¸ æ¯Ķ
åĨĻä¸Ģç¯ĩåħ³äºİ äººå·¥æĻºèĥ½
åİ» äºĨ
cd ot
éļĲç§ģ ä¿ĿæĬ¤
Ġcont ain
è «
ç½ ²
å§¿ åĬ¿
Ġre qu
çļĦç¨ĭ åºı
æ°Ķ æģ¯
åĲĦ åľ°
u g
Ġ1 4
åĴĮ å¤ĦçĲĨ
é¦ ¨
åı ¹
è¿Ļ æ¬¡
3 6
Ľ çĽ¾
éĹ ľ
éľĢè¦ģ æł¹æį®
è¾ĥ ä¸º
ç»Ļå®ļ ä¸Ģä¸ª
èı ²
åĢ¾ åĲ¬
äºº åĲį
æĪĳæĥ³ äºĨè§£
åħį è´¹
åľ¨ ä¸įåĲĮ
Ġquest ion
æ¯ıä¸ª æľĭåıĭ
è¯ Ī
i x
é¢ Ī
Ġs he
åı¤ åħ¸
in es
çļĦ åĲĮæĹ¶
åĽŀ æĬ¥
æĪĳä»¬ åı¯ä»¥éĢļè¿ĩ
S t
éľ ľ
æĥ ľ
éĢļ çŁ¥
çĽ¸ åıį
å°º å¯¸
èĢģ æĿ¿
åĴĮ åĪĽæĸ°
è¿Ļ å®¶
æĺ¨ å¤©
ãĢĤ ãĢĬ
æģĴ æĺŁ
le d
çļĦ åŃ¦ä¹ł
æľī æĹ¶
æĪĸ æľįåĬ¡
å² Ĺ
Ġhe r
éĢĶ å¾Ħ
èĩªæĪĳ æĦıè¯Ĩ
ä¸į èī¯
ä¸ĢçĽ´ åľ¨
çĩ ¥
e k
åĴĮ å¹³
æĭ ĸ
ä¸Ģ éĥ¨
ç¯ĩ åħ³äºİ
éĩİçĶŁ åĬ¨çī©
è¿ĩ æ»¤
åı« åģļ
çļĦç½ĳ ç«Ļ
æĭ Ĥ
åľ¨ å·¥ä½ľ
åĪĨ æķ£
` ï¼Į
åĪ¶ åĵģ
æ» ļ
æ°ĳ æĹı
è¡Į é©¶
ãĢĭ ï¼Į
æī¿ æĭħ
ig inal
æĻ¯ è§Ĥ
ä»¥ éģ¿åħį
æĽ´ åĩĨç¡®åľ°
) ```
åħ±åĲĮ åĬªåĬĽ
D NA
ä¿¡æģ¯ çļĦ
èĢĮ éĿŀ
æĺ¯ äººç±»
èĲĿ åįľ
æħ İ
in put
å¿Ĺ æĦ¿
æ°ı åº¦
ä½ĵ ç§¯
é¢Ĺ ç³ĸæŀľ
åľ¨ ä¸ŃåĽ½
Ġs ome
çļĦçĹ ħ
æ©Ħæ¦Ħ æ²¹
è± ª
æĪĺ çķ¥
çļĦ å¸®åĬ©
åİ Ĥ
I T
æĬĢæľ¯ æĿ¥
è¯·éĹ® æĤ¨
åĩº åıĳ
æľºåĻ¨ ç¿»è¯ĳ
çĶ· åŃ©
åĪ° çļĦ
. ,
ä¸Ģ ä»¶
çĨŁ æĤī
æĮĩ ç¤º
ä¸Ģ åĪĩ
è®¾è®¡ ä¸Ģä¸ª
çļĦ æĦıæĢĿ
æĪĳ åĲ¬è¯´
ĠF or
Ġc he
æķ´ çĲĨ
å±ķ å¼Ģ
å° ĺ
çĶµ åĬ¨
çĶ» éĿ¢
ä¸Ģ åĢĭ
Ġte xt
çļĦçĬ¶ æĢģ
è´¸ æĺĵ
Ġst ring
Ġs im
åħ´ å¥ĭ
æ® ĭ
åĨ· éĿĻ
èı ĩ
ä¿ĿæĬ¤ æĪĳä»¬çļĦ
l ic
ä¸Ģ æĿ¯
èİ·å¾Ĺ äºĨ
çļĦç« ŀ
Ġthe n
èĢĲ å¿ĥ
æ¢ ħ
å»ºè®® åĲĹ
èĸ ª
åŃ¦çĶŁçļĦ åŃ¦ä¹ł
æī¾ åĪ°äºĨ
Ġ4 0
Ġst ud
u de
çļĦ æ°´
Ġ å¥½çļĦ
åı¯ä»¥ çĶ¨æĿ¥
r it
çļĦ æĦŁè§ī
p i
Ġdif fe
è®© ä»ĸä»¬
å°ı åįİ
çļĦ æĸĩåĮĸ
çĶ¨ åĵģ
I D
å¤© çĦ¶
çĽ®æłĩ åĴĮ
æĹ¶éĹ´ ç®¡çĲĨ
f fe
** ,
i ed
Ġf act
åı¯ è§Ĩ
Ð¾ Ð
æŃ» äº¡
å¹¶ è¿Ľè¡Į
å°½ å¿«
ç®Ģ è¦ģ
èĦ Ĩ
æ¥ Ń
çĸ ¼
çī© èģĶç½ĳ
å°Ĩ å®ĥä»¬
å¤§ è§Ħæ¨¡
è® ¯
æ¯ı åĳ¨
ä»¥ä¸ĭæĺ¯ä¸Ģ éģĵ
on s
å®ĥä»¬ åľ¨
å¾ Ĵ
æĽ´ æĶ¹
å®ī éĿĻ
èĥ½å¤Ł åľ¨
çļĦ æł¸å¿ĥ
ä¹Ł å°Ĩ
æµģ åĬ¨
ä¼ł æī¿
çķĮ éĿ¢
ä¸Ń æľī
åĽŀ å¤į
Ġc ount
çľĭ åĪ°äºĨ
æıĲé«ĺ äºĨ
çĮ ľ
è ¼
é¥®é£Ł ä¹łæĥ¯
åį« æĺŁ
æĵħ éķ¿
åĴĮ äººç±»
æ¤ ħ
è¿Ľ ç¨ĭ
å°± åĥı
/ /
å¥½ äºĨ
æķ°åŃĹ çļĦ
il d
à ¹
le x
ä¿Ŀ åŃĺ
åĪ¶ æĪĲ
è¿ Ń
çİ »
éĩĩåıĸ è¡ĮåĬ¨
èĥ ĥ
æĮĩ å®ļ
æĬ± æŃī
ver age
çļĦçĭ Ĺ
éĿ© åĳ½
åĭ Ĵ
æĹ ¦
æĽ´ æį¢
d iv
æ¸© é¦¨
åı¥åŃĲ ä¸Ń
åĴĮ é«ĺ
èµ· æºĲ
æº ¶
åĩº çĶŁ
è°¢è°¢ ä½łçļĦ
Ġtrans l
éĿŀå¸¸ éĢĤåĲĪ
Ġ$ \
l ight
æĪĲ çĨŁ
s ort
æ³ Ĭ
ï¼ļ ãĢĬ
æĿĲ è´¨
ä¼łç»Ł æĸĩåĮĸ
ĠE x
ä¹Ł èĥ½
æķ° æĺ¯
åĽ¾ ä¹¦
æĪ¿ å±ĭ
çĽ Ĺ
ĠT o
é¸Ł ç±»
å© ´
f ul
æ¶Ī éĻ¤
åĢ¾ åĲĳ
Ġrespon se
è®¢ åįķ
ç»ĺ çĶ»
qu are
ä»İ è¿Ļç¯ĩæĸĩç«ł
è¯ķ è¯ķ
æľĪ çĲĥ
çĸ¾çĹħ çļĦ
å®ŀéĻħ åºĶçĶ¨
æ³ķå¾ĭ æ³ķè§Ħ
æĹĭ è½¬
éĤĢ è¯·
Ġ ç¡®å®ļ
æĤ£èĢħ çļĦ
Ġin v
æĺ¯ä¸Ģ é¡¹
n ot
èĬĤ çľģ
T h
A nswer
å®Į ç¾İ
æĽ´ æ·±åħ¥
æĹ¥ çĽĬ
åı ī
å°ı çİĭ
è®²è¿° äºĨ
ver t
çļĦç¨ ³
æĿĥ çĽĬ
å¯Į æľī
æ¢ ¯
æĿ¥ å¸®åĬ©
çİ¯ä¿Ŀ çļĦæĸĩç«ł
åı ł
Ġre al
åł Ĩ
á Ģ
Ġ our
æľī å®³
æĻºèĥ½ æīĭæľº
é»ĳ æļĹ
aus e
åįĩ çº§
éĿ¢ ç²ī
åĬ¨ çĶ»
M L
æ¸ħ æĸ°
ad e
å¹¶ æł¹æį®
d d
çļĦ ä¸ĸçķĮ
ä»¥ä¸ĭæĺ¯ä¸Ģéģĵ å°ıåŃ¦
è¿ĻäºĽ ä¿¡æģ¯
å¹¿ éĺĶ
å¦Ĥæŀľ æĪĳä»¬
çļĦ ä»£çłģ
ä¸Ń ä½¿çĶ¨
Ġre f
å¸ĥ å±Ģ
Ġin ter
çļĦ éķ¿åº¦
çļĦçĪ± æĥħ
éĢ Ĩ
çĭ ®
åº Ħ
åĴĮ åģ¥åº·
å¹¶ æıĲé«ĺ
Ġst r
ic s
çļĦ æľįåĬ¡
æĶ¾ ç½®
å° ĩ
åĩ ¡
è¿Ļæĺ¯ åĽłä¸º
ä»¥ä¸ĭæĺ¯ä¸Ģéģĵå°ıåŃ¦ æķ°åŃ¦é¢ĺ
çĲĨ æĥ³
è¨ Ī
æĥ §
ä¿ĿæĮģ åģ¥åº·
åĩº èī²
çĭ Ĳ
ing s
æĭĵ å±ķ
èĴ Ļ
åī§ æĥħ
é ³
èģĬå¤© æľºåĻ¨äºº
æĺ¯ æľĢ
æĽ´ å¤§çļĦ
an c
èĤī ç±»
åľ° çĲĨ
æĹħ ç¨ĭ
èĨ ľ
åħ ¼
Ġst art
å®¶åºŃ æĪĲåĳĺ
æĬ ĵ
.. .
èª ŀ
æĲľç´¢ å¼ķæĵİ
ï¼ī -
ä¸º ä¸»
c m
r ans
é©± åĬ¨
èĪ ĩ
æİ¥ è¿ĳ
et s
è¯Ń å¢ĥ
è¿Ļ é¡¹
çĶŁ åĬ¨
è®¾è®¡ åĴĮ
åįģ å¹´
Ġd ay
å¼Ģ å±ķ
Ġ2 4
çĶ ¢
çĴ ĥ
ãĤ Ĵ
çļĦçľ ¼
åĴĮ æľĭåıĭ
åĪ¶å®ļ ä¸Ģä¸ª
he n
äººå·¥æĻºèĥ½ å°Ĩ
è® ĵ
åĲĮ æĦı
äºĨ å¾Īå¤ļ
éĺ Ĳ
å®ĥ åľ¨
AI åľ¨
éļ¾ åº¦
å¹¶ ä½¿çĶ¨
ä¼ģä¸ļ çļĦ
å¼º å¤§
åħĶ åŃĲ
æī¿ åıĹ
Ġar r
è¯· éļıæĹ¶
æľ¯ è¯Ń
S E
å½ĵ æĹ¶
ç»ıéªĮ åĴĮ
Ġthe se
æĶ¾æĿ¾ èº«å¿ĥ
çŃī å¤ļç§į
èĢ Ģ
å®ļ å¾ĭ
èİ İ
ä½łåı¯ä»¥ ä½¿çĶ¨
åĪĽæĸ° åĴĮ
ä¸»äºº åħ¬
Ġp ar
f ter
ä»»åĬ¡ çļĦ
å¯Ĩ åº¦
Ù Ħ
æ¨¡ åĿĹ
æľī å¤ļå°ĳ
Ġp rint
çĭ ¸
åĪĽéĢł ä¸Ģä¸ª
ç»ĻæĪĳ ä¸ĢäºĽ
Ġ æĺ¯çļĦ
å¹´ äºº
è¥¿ çıŃ
è¥¿çıŃ çīĻ
æĴ ŀ
æĪĳ è¿ĺ
æľī æ°§
Ġal so
æİ¥ çĿĢ
çĽ Ĩ
é¢Ħ è®¢
åľ° éĿ¢
å¤§ å¤§
ä¸ĵ éĹ¨
ul ar
H e
ĠR e
Ġex pl
éĢ² è¡Į
è¡¥ åħħ
ä½Ĩ åľ¨
Ġle t
åģļ æ³ķ
æ¯ıä¸ªäºº çļĦ
çĽ¸åĲĮ çļĦ
éŃ ħåĬĽ
è¿Ľ åº¦
è¯ ¸
çļĦç¨³ å®ļ
è° ĵ
å¦ ĩ
æ¸ħ çĲĨ
ä¸» è§Ĥ
åİ¨ æĪ¿
æİ¨ è¿Ľ
æĻ ¶
åĮħ è£ħ
r ite
ç®Ĺæ³ķ çļĦ
å®ĥ å°Ĩ
åŃ Ķ
å½¢ æĢģ
åĸ ·
èĥ½å¤Ł å¸®åĬ©
ç¬Ķ è®°
Ġm at
èĴ Ĥ
angu age
ç½ ©
ç§ĭ å¤©
çļĦç«ŀ äºī
è®° å¾Ĺ
G oogle
æŁĶ è½¯
èĭ± éĽĦ
æķ Į
Ġwh o
èĿ ¶
ä¹ Ķ
å¯¹ æĤ¨
æĽ´ é«ĺ
åĲĪ éĢĤ
å¦Ĥä½ķ ä½¿çĶ¨
å½Ĵ ç±»
çĪ ¸
åĽ¾ å½¢
éĨ ĭ
æľªæĿ¥ åıĳå±ķ
ä¼ļ å½±åĵį
Ġwhe n
åģ¶ æķ°
çİ» çĴĥ
çļĦ è¯ĹæŃĮ
ur al
éĸ ĭ
éĻ¤ æŃ¤
åĴĮ ç»ıæµİ
Ġr andom
åī© ä½Ļ
ical ly
æ²³ æµģ
çļĦ é«ĺ
åĨ¬ åŃ£
l ish
ï¼Į `
çº¿ æĢ§
er n
Ġpe ople
åĽº å®ļ
u res
æµ ħ
æ´» åĬĽ
éĿ¢ä¸´ çĿĢ
ãĢ Į
" "
çļĦ æ¦Ĥå¿µ
å¼º çļĦ
çĶŁæĪĲä¸Ģä¸ª åħ³äºİ
ä»¥ åĩıå°ĳ
åĬł åī§
çªģ çł´
åĴĮ çĶŁæ´»
çļĦç Į
Luc y
åħ µ
çĨĬ çĮ«
ä» Ļ
å¹² åĩĢ
è´· æ¬¾
ãĢ į
Ġc orrect
äººå·¥æĻºèĥ½ åĴĮ
Ġ2 00
è¾ĵåħ¥ çļĦ
èħ »
çĶ ĺ
è£ Ļ
æĺİçĻ½ äºĨ
å²Ĺ ä½į
ĠA nswer
ä¹Ĳ æĦı
" }
éĻ¤æŃ¤ ä¹ĭå¤ĸ
æķ ¦
ä¸į å¤Ł
æīĭ è¡¨
S o
æ²ŁéĢļ åĴĮ
éŁ ©
Ġ æıĲä¾Ľ
æĪĸ ç¼º
çģ« æĺŁ
çĥŃ éĹ¨
æ³ ¥
ä¸ī ç§į
å¼Ģåıĳ èĢħ
åĲ¬èµ·æĿ¥ å¾Ī
Ġinte g
ä¸Ģ çĤ¹
---- ----
éģį åİĨ
çİ¯å¢ĥ éĹ®é¢ĺ
çļĦ åŃ£èĬĤ
æĢ» ä½ĵ
æĵ ¦
æĪĳ æŃ£åľ¨
Ġ ent
èį ¡
æº ¯
ä¸Ģ åħ±æľī
çĩ ķ
åĴĮ ä¸ªäºº
çĽ¸äºĴ ä½ľçĶ¨
ç§ĳæĻ® æĸĩç«ł
Ġus ed
Ġg re
2 7
s h
åı¯èĥ½ æľī
æµ· å¹³éĿ¢
æĸ¹æ³ķ æĿ¥
èĢ į
å¯ ĵ
åĪĹ ä¸¾
åĲĪ æĪĲ
çļĦç ¡
äºĳ è®¡ç®Ĺ
æľº æ¢°
ç»Ļ æĤ¨
çĥŃ éĩı
åı¯èĥ½ä¼ļ å¯¹
Ĩ Ĵ
Ġposs ible
çļĦ éĢŁåº¦
åľ° éľĩ
æĥ ĳ
æĦı å¤ĸ
çŃĽ éĢī
å¼Ģ å¿ĥ
æ¡ ¶
åĲĮ ä¹īè¯į
è¢« è§Ĩä¸º
æĸ ¤
èĻ ¾
æ´ ª
è¿ĻäºĽ æĬĢæľ¯
åĭ ¤
é² ¸
Ġexp ress
ä¹Ł å°±æĺ¯
ä¸Ģ çīĩ
tim e
é½ Ĳ
Ġm ake
å®īåħ¨ çļĦ
row n
åľ¨ è¿Ļç§į
å¯¹ æ¯Ķ
ç© Ĩ
å¸¦ æľī
éĽ ķ
åıĳ åĩº
ire ct
å°ı çĭĹ
èĬ ¬
è®¤ åı¯
ä½ľ å®¶
èĩªçĦ¶ çİ¯å¢ĥ
Ġpro blem
P h
æĦŁ æ¿Ģ
å°Ĭ æķ¬
å®¶ åĽŃ
å»ºç«ĭ ä¸Ģä¸ª
è¿ŀ ç»Ń
Ġ è®¡ç®Ĺ
