{"<|endoftext|>":0,"<|im_start|>":1,"<|im_end|>":2,"<|object_ref_start|>":3,"<|object_ref_end|>":4,"<|box_start|>":5,"<|box_end|>":6,"<|quad_start|>":7,"<|quad_end|>":8,"<|vision_start|>":9,"<|vision_end|>":10,"<|vision_pad|>":11,"<|image_pad|>":12,"<|video_pad|>":13,"<|audio_start|>":14,"<|audio_end|>":15,"<|audio_pad|>":16,"<tts_pad>":17,"<tts_text_bos>":18,"<tts_text_eod>":19,"<tts_text_bos_single>":20,"<tool_call>":21,"</tool_call>":22,"<tool_response>":23,"</tool_response>":24,"<think>":25,"</think>":26,"<|buffer1|>":27,"<|buffer2|>":28,"<|buffer3|>":29,"<|buffer4|>":30,"<|buffer5|>":31,"<|buffer6|>":32,"<|buffer7|>":33,"<|buffer8|>":34,"<|buffer9|>":35,"!":36,"\"":37,"#":38,"$":39,"%":40,"&":41,"'":42,"(":43,")":44,"*":45,"+":46,",":47,"-":48,".":49,"/":50,"0":51,"1":52,"2":53,"3":54,"4":55,"5":56,"6":57,"7":58,"8":59,"9":60,":":61,";":62,"<":63,"=":64,">":65,"?":66,"@":67,"A":68,"B":69,"C":70,"D":71,"E":72,"F":73,"G":74,"H":75,"I":76,"J":77,"K":78,"L":79,"M":80,"N":81,"O":82,"P":83,"Q":84,"R":85,"S":86,"T":87,"U":88,"V":89,"W":90,"X":91,"Y":92,"Z":93,"[":94,"\\":95,"]":96,"^":97,"_":98,"`":99,"a":100,"b":101,"c":102,"d":103,"e":104,"f":105,"g":106,"h":107,"i":108,"j":109,"k":110,"l":111,"m":112,"n":113,"o":114,"p":115,"q":116,"r":117,"s":118,"t":119,"u":120,"v":121,"w":122,"x":123,"y":124,"z":125,"{":126,"|":127,"}":128,"~":129,"¡":130,"¢":131,"£":132,"¤":133,"¥":134,"¦":135,"§":136,"¨":137,"©":138,"ª":139,"«":140,"¬":141,"®":142,"¯":143,"°":144,"±":145,"²":146,"³":147,"´":148,"µ":149,"¶":150,"·":151,"¸":152,"¹":153,"º":154,"»":155,"¼":156,"½":157,"¾":158,"¿":159,"À":160,"Á":161,"Â":162,"Ã":163,"Ä":164,"Å":165,"Æ":166,"Ç":167,"È":168,"É":169,"Ê":170,"Ë":171,"Ì":172,"Í":173,"Î":174,"Ï":175,"Ð":176,"Ñ":177,"Ò":178,"Ó":179,"Ô":180,"Õ":181,"Ö":182,"×":183,"Ø":184,"Ù":185,"Ú":186,"Û":187,"Ü":188,"Ý":189,"Þ":190,"ß":191,"à":192,"á":193,"â":194,"ã":195,"ä":196,"å":197,"æ":198,"ç":199,"è":200,"é":201,"ê":202,"ë":203,"ì":204,"í":205,"î":206,"ï":207,"ð":208,"ñ":209,"ò":210,"ó":211,"ô":212,"õ":213,"ö":214,"÷":215,"ø":216,"ù":217,"ú":218,"û":219,"ü":220,"ý":221,"þ":222,"ÿ":223,"Ā":224,"ā":225,"Ă":226,"ă":227,"Ą":228,"ą":229,"Ć":230,"ć":231,"Ĉ":232,"ĉ":233,"Ċ":234,"ċ":235,"Č":236,"č":237,"Ď":238,"ď":239,"Đ":240,"đ":241,"Ē":242,"ē":243,"Ĕ":244,"ĕ":245,"Ė":246,"ė":247,"Ę":248,"ę":249,"Ě":250,"ě":251,"Ĝ":252,"ĝ":253,"Ğ":254,"ğ":255,"Ġ":256,"ġ":257,"Ģ":258,"ģ":259,"Ĥ":260,"ĥ":261,"Ħ":262,"ħ":263,"Ĩ":264,"ĩ":265,"Ī":266,"ī":267,"Ĭ":268,"ĭ":269,"Į":270,"į":271,"İ":272,"ı":273,"Ĳ":274,"ĳ":275,"Ĵ":276,"ĵ":277,"Ķ":278,"ķ":279,"ĸ":280,"Ĺ":281,"ĺ":282,"Ļ":283,"ļ":284,"Ľ":285,"ľ":286,"Ŀ":287,"ŀ":288,"Ł":289,"ł":290,"Ń":291,"ï¼":292,"ä¸":293,"çļ":294,"çļĦ":295,"ï¼Į":296,"ãĢ":297,"ãĢĤ":298,"ä»":299,"äº":300,"åı":301,"æľ":302,"ä½":303,"æĪ":304,"è¿":305,"åħ":306,"åĴ":307,"åĴĮ":308,"åĪ":309,"çĶ":310,"å¤":311,"å®":312,"æĺ":313,"åľ":314,"åĬ":315,"è¯":316,"ä¸Ģ":317,"åĲ":318,"æĸ":319,"ç»":320,"ä¹":321,"ä»¥":322,"æĺ¯":323,"ãĢģ":324,"ï¼ļ":325,"è®":326,"ĥ½":327,"åŃ":328,"åı¯":329,"å°":330,"åľ¨":331,"ä¸ª":332,"æķ":333,"åº":334,"éĢ":335,"èĥ½":336,"æĪĳ":337,"æĹ":338,"ä¼":339,"å¸":340,"äºº":341,"æĿ":342,"éĩ":343,"æľī":344,"åĮ":345,"è¡":346,"çĶ¨":347,"è§":348,"å¹":349,"åĽ":350,"å¯":351,"å·":352,"è¿Ļ":353,"ä¸Ń":354,"åĩ":355,"åı¯ä»¥":356,"è¦":357,"æĢ":358,"è¦ģ":359,"çİ":360,"å¼":361,"åĨ":362,"äºĨ":363,"çŃ":364,"ä»¬":365,"ä¸º":366,"éĹ":367,"é¢":368,"æĬ":369,"çī":370,"ç§":371,"ä¿":372,"å¾":373,"æŀ":374,"å¦":375,"èĢ":376,"å¥":377,"ä¸į":378,"æī":379,"çĶŁ":380,"æ³":381,"å¦Ĥ":382,"å½":383,"çĽ":384,"æŃ":385,"æł":386,"çĲ":387,"æı":388,"Ġt":389,"éĿ":390,"æĿ¥":391,"æĦ":392,"èĩ":393,"åį":394,"ä¾":395,"æķ°":396,"åĵ":397,"æĹ¶":398,"æĽ":399,"in":400,"æĥ":401,"ä½ł":402,"åŃ¦":403,"æİ":404,"æĪĲ":405,"çŃī":406,"**":407,"è¡Į":408,"å¯¹":409,"æĻ":410,"æĸ¹":411,"äºİ":412,"æĸĩ":413,"æıĲ":414,"äºĽ":415,"éľ":416,"ä¸ĭ":417,"Ġa":418,"æĶ":419,"æ°":420,"æĭ":421,"he":422,"è´":423,"ä¼ļ":424,"åĪ°":425,"æĽ´":426,"ä¸Ģä¸ª":427,"åĳ":428,"åľ°":429,"å¿":430,"æĮ":431,"æį":432,"éľĢ":433,"ä½ľ":434,"âĢ":435,"åĪĨ":436,"çĲĨ":437,"å·¥":438,"å¥½":439,"æµ":440,"èĩª":441,"æĤ":442,"è¿ĩ":443,"ç®":444,"åĬ¨":445,"åĮĸ":446,"æ¯":447,"èµ":448,"åİ":449,"ä»ĸ":450,"å±":451,"ä¿Ŀ":452,"æĢ§":453,"å¤ļ":454,"on":455,"ï¼Ł":456,"æĪĳä»¬":457,"re":458,"åıĳ":459,"åĩº":460,"éĢļ":461,"æĪĸ":462,"æ³ķ":463,"ä¸Ĭ":464,"è¾":465,"é¢ĺ":466,"åºĶ":467,"ĠĠ":468,"çī©":469,"å¤§":470,"æĬĢ":471,"è¿Ľ":472,"å®ļ":473,"er":474,"æį®":475,"éľĢè¦ģ":476,"åŁ":477,"ä½ĵ":478,"ä½¿":479,"çļĦç":480,"éĻ":481,"æŀľ":482,"åĬĽ":483,"éĿ¢":484,"åħ³":485,"æĤ¨":486,"åĲĮ":487,"æ´":488,"è§£":489,"é£":490,"ç±":491,"çİ°":492,"å¹¶":493,"ç§į":494,"é«":495,"éĹ®":496,"å°Ĩ":497,"å°ı":498,"åĬł":499,"é«ĺ":500,"çº":501,"æ¸":502,"ç«":503,"ç¨":504,"åģ":505,"éģ":506,"åħ¶":507,"å¸¸":508,"æ±":509,"æľĢ":510,"èī":511,"æ²":512,"åŃĲ":513,"åº¦":514,"æľº":515,"ç¡":516,"éĩı":517,"Ġthe":518,"at":519,"æľ¯":520,"è½":521,"æĻº":522,"çĦ":523,"å®ĥ":524,"æĥħ":525,"éĩį":526,"éĹ´":527,"æĦŁ":528,"ç³":529,"åĬ©":530,"Ġs":531,"ç±»":532,"æ¬":533,"åĵģ":534,"ä¹Ł":535,"åĲĪ":536,"éĺ":537,"æĻºèĥ½":538,"è¶":539,"åĽł":540,"æĸ°":541,"en":542,"ä½¿çĶ¨":543,"or":544,"å¢":545,"çĦ¶":546,"è¡¨":547,"ä¸İ":548,"è°":549,"è®¡":550,"ä¹ł":551,"ç¡®":552,"ç¨ĭ":553,"å»":554,"å®ŀ":555,"å®¶":556,"æĦı":557,"is":558,"ä¹ĭ":559,"çĤ":560,"ç¤":561,"ä¸ļ":562,"èĢĮ":563,"éĹ®é¢ĺ":564,"an":565,"es":566,"åĢ":567,"æľ¬":568,"Ġc":569,"å¤©":570,"å»º":571,"å¾Ĺ":572,"èĤ":573,"è¯Ń":574,"ä¾Ľ":575,"Ġ**":576,"åı¯èĥ½":577,"å¸®":578,"æģ":579,"å¼ı":580,"çľ":581,"æĬĢæľ¯":582,"ç»ı":583,"å½±":584,"æĺİ":585,"ä¸ĢäºĽ":586,"åĪ¶":587,"éĶ":588,"ä¿¡":589,"åī":590,"åħ¬":591,"çĿ":592,"èĢħ":593,"æıĲä¾Ľ":594,"ç´":595,"çİ¯":596,"Ł¥":597,"èĬ":598,"æĮģ":599,"æķ°æį®":600,"ç³»":601,"æ´»":602,"ä¹Ī":603,"al":604,"å±ķ":605,"åħ·":606,"åħ¥":607,"éļ":608,"åŃ¦ä¹ł":609,"åĬ¡":610,"ç½":611,"çĸ":612,"âĢĿ":613,"ç®Ĺ":614,"âĢľ":615,"å¸®åĬ©":616,"è¿Ľè¡Į":617,"èī²":618,"æŃ¤":619,"ä¸»":620,"ä»¥ä¸ĭ":621,"åĲİ":622,"Ġ=":623,"ä¾ĭ":624,"å¿ĥ":625,"éĢļè¿ĩ":626,"it":627,"æīĢ":628,"çĽ¸":629,"ç»Ļ":630,"çī¹":631,"åħ¨":632,"åĮħ":633,"äº§":634,"çĶµ":635,"äººå·¥":636,"é¡":637,"æ·":638,"ç¾":639,"Ġp":640,"ç©":641,"çĤ¹":642,"ä½Ĩ":643,"å½ĵ":644,"ou":645,"è¯·":646,"äººå·¥æĻºèĥ½":647,"æ°´":648,"ä»£":649,"æĥ³":650,"çĿĢ":651,"å¼Ģ":652,"çķ":653,"å¹´":654,"Ġf":655,"åŀ":656,"ä»İ":657,"æ°Ķ":658,"åĻ":659,"é¦":660,"ing":661,"Ġw":662,"è¿ĺ":663,"çĽ®":664,"åıĺ":665,"ï¼ī":666,"éĥ½":667,"le":668,"åĽ½":669,"è®¾":670,"æķĪ":671,"éĢĤ":672,"**ï¼ļ":673,"æģ¯":674,"åĻ¨":675,"åĨħ":676,"éķ":677,"è¿Ļä¸ª":678,"ar":679,"éª":680,"ï¼Ī":681,"èģ":682,"å¾Ī":683,"Ġb":684,"åŃĹ":685,"è¿ĻäºĽ":686,"è·":687,"çł":688,"åĲį":689,"Ġo":690,"äºĭ":691,"éĢī":692,"é£Ł":693,"å¦Ĥæŀľ":694,"ä½ķ":695,"æĪ·":696,"è®©":697,"å¹³":698,"ç¬":699,"æ¯Ķ":700,"äº¤":701,"è¯¥":702,"Ġ1":703,"åĿ":704,"å¥½çļĦ":705,"éĤ":706,"Ġ\\":707,"æ±Ĥ":708,"æ¯ı":709,"éĿŀ":710,"00":711,"åıĸ":712,"åĸ":713,"éħ":714,"éĽ":715,"åĪĽ":716,"æ¡":717,"ç»Ł":718,"è´¨":719,"å·±":720,"ä»»":721,"ç»ĵ":722,"èĩªå·±":723,"ç¼":724,"Ł³":725,"Ġm":726,"æŃ£":727,"åıĬ":728,"å°ĳ":729,"ion":730,"éķ¿":731,"èĻ":732,"è¢":733,"ç¾İ":734,"å¤ĸ":735,"åĨ³":736,"çĲĥ":737,"Ġd":738,"åľº":739,"çĥ":740,"éĥ":741,"å¸Ĥ":742,"åĵį":743,"åĮ»":744,"åŀĭ":745,"æº":746,"Ġin":747,"æĺ¯ä¸Ģ":748,"å¤Ħ":749,"æĹ¶éĹ´":750,"å¢ĥ":751,"åºĶçĶ¨":752,"Ġan":753,"æłĩ":754,"ic":755,"ä»¶":756,"æł¹":757,"æ³¨":758,"ä¾ĭå¦Ĥ":759,"ä¿¡æģ¯":760,"è¯Ĩ":761,"æĹ¥":762,"åīį":763,"æ®":764,"åıĳå±ķ":765,"åıĹ":766,"åĪ©":767,"è®®":768,"èº":769,"æ¨":770,"æľŁ":771,"ä½į":772,"æĭ¬":773,"é£İ":774,"éģĵ":775,"æ¶":776,"èµ·":777,"é¢Ĩ":778,"å®ī":779,"ç§ĳ":780,"åģ¥":781,"ä»ĸä»¬":782,"å¤Ł":783,"ä¸įåĲĮ":784,"å½±åĵį":785,"è¯´":786,"éĥ¨":787,"åĨĻ":788,"éĩĮ":789,"éĩįè¦ģ":790,"ç«ł":791,"èº«":792,"èĲ":793,"æıĲé«ĺ":794,"èµĦ":795,"èį":796,"ä¸ŃçļĦ":797,"ed":798,"ç¤¾":799,"ä»Ģ":800,"åĪ«":801,"åŁŁ":802,"åĮħæĭ¬":803,"Ġof":804,"æŁ":805,"æīĭ":806,"æĢ»":807,"æĸĩç«ł":808,"è¨":809,"è¢«":810,"Ġto":811,"åķ":812,"ä»Ģä¹Ī":813,"æºĲ":814,"éĿŀå¸¸":815,"éŁ³":816,"æł¹æį®":817,"``":818,"éĤ£":819,"å®¹":820,"çŁ¥":821,"æŃ¥":822,"æ¨¡":823,"è¯į":824,"om":825,"èĭ":826,"æĭ©":827,"æ»":828,"éĢīæĭ©":829,"æľį":830,"çİ¯å¢ĥ":831,"æĹł":832,"æµģ":833,"åĽŀ":834,"çľĭ":835,"å§":836,"æľª":837,"æ·±":838,"æİ¨":839,"æĬ¤":840,"Ġ2":841,"åĩı":842,"çĸĹ":843,"Ġn":844,"å¼º":845,"é¥":846,"è°ĥ":847,"çĭ":848,"å·¥ä½ľ":849,"ac":850,"åı¥":851,"åŁº":852,"å¯¼":853,"æ®µ":854,"as":855,"æł·":856,"èĢĥ":857,"æĶ¾":858,"åįķ":859,"è¿°":860,"è¨Ģ":861,"å¦Ĥä½ķ":862,"è¯Ŀ":863,"æķĻ":864,"Ġ-":865,"æł¼":866,"AI":867,"çİĩ":868,"èĥ½å¤Ł":869,"ä¹Ĳ":870,"èĬĤ":871,"çĹ":872,"é¢ĨåŁŁ":873,"ç®¡":874,"æĸŃ":875,"ç´ł":876,"åı¸":877,"åĩĨ":878,"äººç±»":879,"å½¢":880,"ä¼ł":881,"è®¡ç®Ĺ":882,"åĳĺ":883,"åħĥ":884,"åº·":885,"æĸ¹å¼ı":886,"åĢ¼":887,"å»ºè®®":888,"çĶŁæ´»":889,"æ¸¸":890,"åİ»":891,"éªĮ":892,"æŀĲ":893,"ç¥":894,"çģ":895,"åĪĹ":896,"Ġis":897,"æĮĩ":898,"ç¯":899,"å®¢":900,"è¯ķ":901,"çĪ":902,"åģ¥åº·":903,"æµĭ":904,"ç»Ħ":905,"æķ´":906,"çĶŁæĪĲ":907,"ä¸¤":908,"èĪ":909,"æĸ¹æ³ķ":910,"ä¼ĺ":911,"æİ¥":912,"æ¡Ī":913,"èĥ":914,"è§Ĥ":915,"è¿Ĳ":916,"è±":917,"åĪĨæŀĲ":918,"è®¤":919,"Ġand":920,"æĶ¹":921,"åħ¬åı¸":922,"åŃĺ":923,"å¢ŀ":924,"å°±":925,"åĲĮæĹ¶":926,"æ¬¡":927,"æĶ¯":928,"å£":929,"ç¤º":930,"æĸĻ":931,"um":932,"åĽłæŃ¤":933,"æĻ¯":934,"st":935,"ä»·":936,"ent":937,"æĸ¹éĿ¢":938,"ç²":939,"et":940,"å¤ĩ":941,"é¢Ħ":942,"å¤ĦçĲĨ":943,"åºı":944,"å®ĥä»¬":945,"æī¾":946,"ç³»ç»Ł":947,"éĢł":948,"è§Ĩ":949,"ç½ĳ":950,"åĲĳ":951,"èĩªå·±çļĦ":952,"æĸĩåĮĸ":953,"è®º":954,"ro":955,"åħĪ":956,"Ġe":957,"è¾¾":958,"åħ¶ä»ĸ":959,"åĨµ":960,"æĽ´åĬł":961,"æľºåĻ¨":962,"æĸĩæľ¬":963,"æ²¡":964,"Ġ\"":965,"çĻ":966,"ç¯ĩ":967,"æľªæĿ¥":968,"éĴ":969,"ĊĠĠ":970,"å®Į":971,"æ¼":972,"im":973,"èĦ":974,"ĸçķ":975,"æµ·":976,"çĶ±":977,"åºĶè¯¥":978,"çŃĶ":979,"Ġre":980,"åĮº":981,"ç¡®ä¿Ŀ":982,"åĲĦ":983,"åģļ":984,"åĲĹ":985,"é»":986,"æĢģ":987,"Ġl":988,"é¦ĸ":989,"æĺ¯ä¸Ģä¸ª":990,"é¡¹":991,"èİ":992,"åħ³äºİ":993,"åİĨ":994,"å¤į":995,"--":996,"å¸¦":997,"æĢĿ":998,"åıª":999,"åħī":1000,"è§Ħ":1001,"åĬŁ":1002,"éĩĳ":1003,"é©":1004,"èı":1005,"èĩªçĦ¶":1006,"è¯Ńè¨Ģ":1007,"æ¬¢":1008,"çĬ":1009,"å®īåħ¨":1010,"æ£":1011,"Ġ|":1012,"åıį":1013,"th":1014,"çĶ¨æĪ·":1015,"ä¸ī":1016,"äºĨè§£":1017,"åĸľ":1018,"åİŁ":1019,"ç©º":1020,"ä¹ī":1021,"åħ±":1022,"å¹¿":1023,"è½¦":1024,"ä¸ªäºº":1025,"ä¿ĿæĬ¤":1026,"å·²":1027,"è£":1028,"å¼ķ":1029,"æľįåĬ¡":1030,"è§Ĵ":1031,"è¾ĵ":1032,"åĩıå°ĳ":1033,"åĳ³":1034,"èĻĳ":1035,"Ġh":1036,"ä½łçļĦ":1037,"te":1038,"åĪĻ":1039,"ç«ĭ":1040,"åı¯ä»¥å¸®åĬ©":1041,"åĲ¦":1042,"æĺŁ":1043,"å¿«":1044,"æ¸ħ":1045,"åı£":1046,"##":1047,"æ²¡æľī":1048,"æŀĦ":1049,"Ġ$":1050,"éĢŁ":1051,"èĩ´":1052,"åĪĴ":1053,"æŀģ":1054,"æŁ¥":1055,"éĻ©":1056,"åıĤ":1057,"æİĴ":1058,"æĶ¶":1059,"ll":1060,"ä¿ĿæĮģ":1061,"çº¿":1062,"è§£åĨ³":1063,"äººä»¬":1064,"Ġ3":1065,"Ġy":1066,"ç®¡çĲĨ":1067,"ä»¥åıĬ":1068,"åĩł":1069,"ç»Ĩ":1070,"éĵ":1071,"äº§åĵģ":1072,"åķĨ":1073,"éĢļå¸¸":1074,"å§ĭ":1075,"éļı":1076,"æ¸©":1077,"ç¿":1078,"ç®Ģ":1079,"æĽ´å¥½":1080,"æĥħåĨµ":1081,"åħį":1082,"ç»Ń":1083,"å¤ª":1084,"æĪĺ":1085,"ç¤¾ä¼ļ":1086,"åĨħå®¹":1087,"çĹħ":1088,"åĽ¾":1089,"çĮ":1090,"ç¦":1091,"è¿ĳ":1092,"ä»»åĬ¡":1093,"è¶Ĭ":1094,"ä¸Ķ":1095,"æĹħ":1096,"åĳĬ":1097,"çłģ":1098,"åĵª":1099,"è®¸":1100,"ve":1101,"èĮ":1102,"ç§¯":1103,"å®ŀçİ°":1104,"åĽłä¸º":1105,"æ´»åĬ¨":1106,"æıı":1107,"ãĢĬ":1108,"ãĢĭ":1109,"è½»":1110,"ct":1111,"èĬ±":1112,"èĥ½åĬĽ":1113,"æĳ":1114,"çĲĨè§£":1115,"Ġ+":1116,"è¯Ħ":1117,"å°ıæĺİ":1118,"çĽ´":1119,"ä»¥ä¸ĭæĺ¯":1120,"id":1121,"è±¡":1122,"æĽ´å¥½åľ°":1123,"ï¼ģ":1124,"éħį":1125,"èĤ²":1126,"åĮ»çĸĹ":1127,"20":1128,"æľĽ":1129,"Ġ(":1130,"æľĪ":1131,"æĽ´å¤ļ":1132,"çĪ±":1133,"éĺŁ":1134,"ç»´":1135,"è¶³":1136,"ä¹ĭéĹ´":1137,"åŁİ":1138,"è®¾è®¡":1139,"æ»¡":1140,"è¿ĩç¨ĭ":1141,"Ġth":1142,"çħ":1143,"éĩĩ":1144,"ç»ĥ":1145,"ç¼ĸ":1146,"åĥ":1147,"ĠT":1148,"èıľ":1149,"æķħ":1150,"é¸":1151,"ow":1152,"ä¸ĵ":1153,"æĤ¨çļĦ":1154,"æ²»":1155,"è§ī":1156,"éĽĨ":1157,"æĸ½":1158,"çİ¯ä¿Ŀ":1159,"ç©¶":1160,"è¾ĥ":1161,"ä¾¿":1162,"æİ§":1163,"åħ·ä½ĵ":1164,"è¶£":1165,"çłĶ":1166,"çĶµå½±":1167,"10":1168,"åĶ":1169,"äºĴ":1170,"am":1171,"æĪĳä»¬çļĦ":1172,"æĬķ":1173,"çĬ¶":1174,"ĠS":1175,"éľĢæ±Ĥ":1176,"è®°":1177,"Ġg":1178,"å¸Ĥåľº":1179,"åĥı":1180,"èĢĥèĻĳ":1181,"è½¬":1182,"æ¤":1183,"éĶ®":1184,"åıĭ":1185,"ot":1186,"è§ģ":1187,"æĥħæĦŁ":1188,"ç½®":1189,"ä¸»è¦ģ":1190,"èģĶ":1191,"å®ļçļĦ":1192,"çŁ":1193,"æİ¢":1194,"åĽ¢":1195,"åĸľæ¬¢":1196,"æĺ¯åĲ¦":1197,"us":1198,"åĲ«":1199,"æĿĲ":1200,"```":1201,"æ³¨æĦı":1202,"æĪĸèĢħ":1203,"ç¥ŀ":1204,"ç¬¬":1205,"çĽ®æłĩ":1206,"åı¥åŃĲ":1207,"æĸ°çļĦ":1208,"ä½Ĩæĺ¯":1209,"æĺ¯ä¸Ģç§į":1210,"æĶ¿":1211,"ce":1212,"ä¹¦":1213,"æĺĵ":1214,"æııè¿°":1215,"ç¬¦":1216,"åı¯èĥ½ä¼ļ":1217,"åı²":1218,"ur":1219,"ers":1220,"åĲ¬":1221,"æĶ¯æĮģ":1222,"ãģ":1223,"ä½İ":1224,"éģ¿":1225,"æ¨¡åŀĭ":1226,"çº¢":1227,"ä¸ĸçķ":1228,"ä¸ĸçķĮ":1229,"æĵ":1230,"ation":1231,"ig":1232,"æŃĮ":1233,"èİ·":1234,"ly":1235,"éĺ³":1236,"çĶ¨äºİ":1237,"è´¹":1238,"ç´¢":1239,"åħĭ":1240,"èĭ±":1241,"ï¼Ľ":1242,"æĿ¡":1243,"æļ":1244,"å¯¹äºİ":1245,"èĲ¥":1246,"ä»½":1247,"ç®Ĺæ³ķ":1248,"æķ°åŃĹ":1249,"ä¸ŃåĽ½":1250,"ä¸įåĲĮçļĦ":1251,"è¯»":1252,"äº«":1253,"æķĻèĤ²":1254,"çīĩ":1255,"éŁ³ä¹Ĳ":1256,"ul":1257,"éĻħ":1258,"å¥¹":1259,"å¸Ī":1260,"ä»ħ":1261,"çŃĸ":1262,"å¾ĭ":1263,"è¿Ļç§į":1264,"å·²ç»ı":1265,"ç¢":1266,"é¤":1267,"éĶĻ":1268,"çº¦":1269,"è·¯":1270,"çĥŃ":1271,"éĶĢ":1272,"é¥®":1273,"ç§ĳæĬĢ":1274,"ĠA":1275,"æ¶Ī":1276,"è¯ģ":1277,"è´¨éĩı":1278,"èĳ":1279,"çľŁ":1280,"ä¸įæĸŃ":1281,"åĲ¸":1282,"è®¸å¤ļ":1283,"è°¢":1284,"åį³":1285,"åįĩ":1286,"ol":1287,"æĲ":1288,"æķĪçİĩ":1289,"åıĺåĮĸ":1290,"éģ¿åħį":1291,"èĩ³":1292,"ç²¾":1293,"Ġyou":1294,"å®¢æĪ·":1295,"é¤Ĳ":1296,"æīĵ":1297,"å¯¼èĩ´":1298,"åħħ":1299,"ä¸¤ä¸ª":1300,"æĪĲä¸º":1301,"åĪ°äºĨ":1302,"qu":1303,"éļ¾":1304,"if":1305,"èº«ä½ĵ":1306,"ä¹ĭä¸Ģ":1307,"åħ³éĶ®":1308,"Ġ5":1309,"è®¡åĪĴ":1310,"è®¤ä¸º":1311,"éĻ¤":1312,"æħ":1313,"æ¼Ķ":1314,"åŁİå¸Ĥ":1315,"ut":1316,"åĳ½":1317,"è®Ń":1318,"åħ´":1319,"å¼Ģå§ĭ":1320,"åĢĻ":1321,"å¸Į":1322,"çĻ½":1323,"è£ħ":1324,"ĠI":1325,"æīĢæľī":1326,"ä¸Ģç¯ĩ":1327,"ä¸Ģä¸ĭ":1328,"éĤ£ä¹Ī":1329,"åĨį":1330,"un":1331,"å¸¦æĿ¥":1332,"èīº":1333,"åĬ¿":1334,"ä»İèĢĮ":1335,"å¯Į":1336,"Ġfor":1337,"éĢĤåĲĪ":1338,"åİĭ":1339,"yth":1340,"åħ·æľī":1341,"å°½":1342,"èµĦæºĲ":1343,"éĩįè¦ģçļĦ":1344,"æķħäºĭ":1345,"ç»ĵæŀľ":1346,"å¤§çļĦ":1347,"èĩªåĬ¨":1348,"æŃ¤å¤ĸ":1349,"æĪı":1350,"çĽ¸åħ³":1351,"åı¯ä»¥éĢļè¿ĩ":1352,"è¿ĲåĬ¨":1353,"çłĶç©¶":1354,"ä¸Ģç§į":1355,"å¯»":1356,"éĻĲ":1357,"å¢ŀåĬł":1358,"å¤´":1359,"ĠC":1360,"Ġ4":1361,"åĪ©çĶ¨":1362,"èĤī":1363,"æĬ¥":1364,"åİĨåı²":1365,"åŃ¦çĶŁ":1366,"æŁĲ":1367,"åĪĨç±»":1368,"çĭ¬":1369,"ython":1370,"å°Ŀ":1371,"ä»£çłģ":1372,"åħ»":1373,"ä¸»é¢ĺ":1374,"è´Ń":1375,"èĢģ":1376,"åŃĺåľ¨":1377,"å®ĮæĪĲ":1378,"ge":1379,"åĭ":1380,"å¤±":1381,"æ¢":1382,"ä»Ĭ":1383,"ate":1384,"æĮĳ":1385,"åĳ¢":1386,"ç±³":1387,"èĽ":1388,"åĽ¢éĺŁ":1389,"åĲĦç§į":1390,"$$":1391,"é¦ĸåħĪ":1392,"åħ³ç³»":1393,"å¯Ĩ":1394,"è¡Įä¸º":1395,"å¡":1396,"æ¬¾":1397,"çļĦäºº":1398,"å·¥åħ·":1399,"å¿ħ":1400,"è¯ĨåĪ«":1401,"å¼ł":1402,"åĳ¨":1403,"èģĮ":1404,"å²":1405,"åĬŁèĥ½":1406,"éĩĬ":1407,"ä¼ģ":1408,"æİ§åĪ¶":1409,"æ¸¸æĪı":1410,"åħ¨çĲĥ":1411,"æīį":1412,"éĹ¨":1413,"æ¯ıä¸ª":1414,"å¸ĮæľĽ":1415,"å¥³":1416,"è¯Ĺ":1417,"ä½ľä¸º":1418,"çĦ¶åĲİ":1419,"ç³ĸ":1420,"ç¨ĭåºı":1421,"åĩ½":1422,"çļĦå½±åĵį":1423,"äº§çĶŁ":1424,"è¡¨è¾¾":1425,"ç¿»":1426,"åĩĨç¡®":1427,"æĬķèµĦ":1428,"å¯¹è¯Ŀ":1429,"é£İéĻ©":1430,"æĪĳä»¬åı¯ä»¥":1431,"ä¹°":1432,"åı·":1433,"åı°":1434,"å¸ĥ":1435,"å½ĵçĦ¶":1436,"èŀ":1437,"äººçļĦ":1438,"æľºåĻ¨åŃ¦ä¹ł":1439,"æĢ§åĴĮ":1440,"ay":1441,"çİ°åľ¨":1442,"è¥":1443,"åĩ½æķ°":1444,"çļĦåıĳå±ķ":1445,"æ¦":1446,"Ġ\\(":1447,"æ£Ģ":1448,"åĽ´":1449,"æĸ¯":1450,"æĮĳæĪĺ":1451,"å±±":1452,"ç»ľ":1453,"ç§ĳåŃ¦":1454,"è¥¿":1455,"ĠĠĠĠ":1456,"il":1457,"ç§°":1458,"æŁĵ":1459,"äºĮ":1460,"èįĲ":1461,"åıĳçİ°":1462,"ä¹ĭéĹ´çļĦ":1463,"æİ¨èįĲ":1464,"æĪĳçļĦ":1465,"çħ§":1466,"ir":1467,"æĮģç»Ń":1468,"æį¢":1469,"èħ":1470,"ä¼ģä¸ļ":1471,"åĬ¨çī©":1472,"åĮ»çĶŁ":1473,"éĺ²":1474,"Ġst":1475,"åĽŀçŃĶ":1476,"æ³Ľ":1477,"èĲ½":1478,"æİª":1479,"ad":1480,"æľīæķĪ":1481,"çı":1482,"çª":1483,"æ¯Ķå¦Ĥ":1484,"åħ¶ä¸Ń":1485,"æĿ¾":1486,"æľĭ":1487,"å»ºç«ĭ":1488,"ist":1489,"æľĢè¿ĳ":1490,"ch":1491,"ä¸įä»ħ":1492,"ç»ĻæĪĳ":1493,"èŀį":1494,"è¯¯":1495,"æ°ĳ":1496,"æ²»çĸĹ":1497,"çŁŃ":1498,"è¯ī":1499,"å°Ŀè¯ķ":1500,"æĿĥ":1501,"iv":1502,"å·§":1503,"æĸ¹æ¡Ī":1504,"æľĭåıĭ":1505,"çĭĹ":1506,"å¾Īå¤ļ":1507,"è¯ĳ":1508,"æİªæĸ½":1509,"èĽĭ":1510,"è¿Ļæł·":1511,"ä»ĭ":1512,"çļĦæĸĩç«ł":1513,"ä½ĵéªĮ":1514,"åı¤":1515,"éĻį":1516,"æĴ":1517,"ä¸½":1518,"ç¦»":1519,"åĿĩ":1520,"ç½ĳç»ľ":1521,"ith":1522,"è¾¹":1523,"è¿ľ":1524,"æĿĤ":1525,"se":1526,"çļĦéĹ®é¢ĺ":1527,"çĽĳ":1528,"å¹¿æ³Ľ":1529,"åŃ©":1530,"å£°":1531,"åľ°çĲĥ":1532,"ä¿®":1533,"åºŃ":1534,"æ¿":1535,"å¿µ":1536,"å¼Ģåıĳ":1537,"åĪ¶å®ļ":1538,"æĽ´å¤ļçļĦ":1539,"ç»Ī":1540,"xt":1541,"ä¸Ģæ®µ":1542,"å¨":1543,"æ²¹":1544,"åŃ£":1545,"å¤ı":1546,"ä»ĸä»¬çļĦ":1547,"çļĦæĺ¯":1548,"éĥ¨åĪĨ":1549,"ĠP":1550,"æ¤į":1551,"é¦Ļ":1552,"åĸĦ":1553,"æī¾åĪ°":1554,"æľĢåĲİ":1555,"é²":1556,"å¾ĹåĪ°":1557,"æıĲåıĸ":1558,"è§Ĵèī²":1559,"èīºæľ¯":1560,"ä¸Ģèµ·":1561,"åĽłç´ł":1562,"æĪ¿":1563,"çļĦåºĶçĶ¨":1564,"ä¼°":1565,"ä»·åĢ¼":1566,"çĽĬ":1567,"ç¡®å®ļ":1568,"int":1569,"æµİ":1570,"çº§":1571,"Ġcon":1572,"çīĮ":1573,"è¦ģæ±Ĥ":1574,"è®¾å¤ĩ":1575,"Â·":1576,"ä¼Ĺ":1577,"è¾ĵåħ¥":1578,"æĹłæ³ķ":1579,"ç§¯æŀģ":1580,"éļıçĿĢ":1581,"çĶ»":1582,"äº¤éĢļ":1583,"å¤©æ°Ķ":1584,"è®¡ç®Ĺæľº":1585,"rac":1586,"Ġbe":1587,"ä¼łç»Ł":1588,"é¡¹çĽ®":1589,"é»ĳ":1590,"è´Ł":1591,"è®Ńç»ĥ":1592,"åĪ¶ä½ľ":1593,"ç»ıæµİ":1594,"æ¿Ģ":1595,"æĮī":1596,"ver":1597,"å¹¶ä¸Ķ":1598,"é¢Ħæµĭ":1599,"ç¿»è¯ĳ":1600,"Ġpro":1601,"Ġas":1602,"åĶ®":1603,"æĪĳæĥ³":1604,"ä½ľçĶ¨":1605,"æĤ¨åı¯ä»¥":1606,"çŃīçŃī":1607,"å®¶åºŃ":1608,"è¡¡":1609,"ä¸ĬçļĦ":1610,"åĵªäºĽ":1611,"Ġr":1612,"ç«Ļ":1613,"å¾ģ":1614,"ä½łåı¯ä»¥":1615,"æĢ»ä¹ĭ":1616,"æĬĬ":1617,"ä»»ä½ķ":1618,"æ½":1619,"è®¨":1620,"äºī":1621,"éª¤":1622,"ä¸ĵä¸ļ":1623,"###":1624,"èĥ½æºĲ":1625,"å¾·":1626,"æŃ¥éª¤":1627,"åĿĹ":1628,"pp":1629,"ç¤¾äº¤":1630,"od":1631,"Ġor":1632,"è§£éĩĬ":1633,"è½¯":1634,"çŁ¥è¯Ĩ":1635,"ke":1636,"æ¦Ĥ":1637,"ä¸°":1638,"åŁºäºİ":1639,"éĩĩåıĸ":1640,"Ġwe":1641,"åħ³æ³¨":1642,"æĬĢèĥ½":1643,"ä¼ĺåĮĸ":1644,"é¼":1645,"æ±¡":1646,"äººå·¥æĻºèĥ½æĬĢæľ¯":1647,"æīĢä»¥":1648,"åĪĩ":1649,"ä¿ĥ":1650,"åĨĻä¸Ģç¯ĩ":1651,"åĲĥ":1652,"res":1653,"çŁ¥éģĵ":1654,"å¹²":1655,"ä»¥ä¸ĭæĺ¯ä¸ĢäºĽ":1656,"ç±»åŀĭ":1657,"åı¦":1658,"é¥®é£Ł":1659,"åįı":1660,"åĪĽéĢł":1661,"åª":1662,"å±Ĥ":1663,"åĪĹè¡¨":1664,"éģĩ":1665,"åħĥç´ł":1666,"umb":1667,"åĳĬè¯ī":1668,"å¤įæĿĤ":1669,"ç®Ģåįķ":1670,"å¾Ģ":1671,"è°ĥæķ´":1672,"æĿĲæĸĻ":1673,"æĪĲåĬŁ":1674,"è¯¢":1675,"æĺ¾":1676,"åĬłåħ¥":1677,"èī¯":1678,"Ġare":1679,"ç»ĵæŀĦ":1680,"å¼Ĥ":1681,"åĬ±":1682,"çģ«":1683,"ç»į":1684,"ä¸įæĺ¯":1685,"å¤ªéĺ³":1686,"éĩıçļĦ":1687,"è´£":1688,"ä¼¼":1689,"æĿİ":1690,"åĩłä¸ª":1691,"æŃ£ç¡®":1692,"åĤ":1693,"ä»ĭç»į":1694,"and":1695,"åĲĪä½ľ":1696,"æĭ¥":1697,"èĳĹ":1698,"èį¯":1699,"å®³":1700,"è¡Įä¸ļ":1701,"Ġv":1702,"æĪĳä»¬éľĢè¦ģ":1703,"çĨ":1704,"è¡¨ç¤º":1705,"ab":1706,"çİ©":1707,"æĿ¥è¯´":1708,"çŃĶæ¡Ī":1709,"èİ·å¾Ĺ":1710,"ĊĠĠĠ":1711,"Ġon":1712,"åĪĽæĸ°":1713,"æ±¡æŁĵ":1714,"å·®":1715,"è¯Ħä¼°":1716,"çļĦéĩįè¦ģ":1717,"ä¸°å¯Į":1718,"è¯¦":1719,"åĽĽ":1720,"æĵį":1721,"Ġthat":1722,"est":1723,"èµĽ":1724,"æĽ²":1725,"æĭī":1726,"æŃ£åľ¨":1727,"çĮ«":1728,"Ġwith":1729,"æİ¢ç´¢":1730,"éļĲ":1731,"è®²":1732,"ri":1733,"çĶŁäº§":1734,"nt":1735,"è¡¨çİ°":1736,"åĨ³çŃĸ":1737,"åĩºçİ°":1738,"ht":1739,"æĦŁåĪ°":1740,"åįİ":1741,"åĽŃ":1742,"ĠB":1743,"å±ħ":1744,"èĮĥ":1745,"èµ·æĿ¥":1746,"è¿ĺæľī":1747,"é£Łçī©":1748,"åĦ":1749,"å°Ķ":1750,"Ġ6":1751,"å½ķ":1752,"ä¸ºäºĨ":1753,"é©¬":1754,"åªĴ":1755,"åıĹåĪ°":1756,"ld":1757,"è¯Ĭ":1758,"ç»ıéªĮ":1759,"çĶŁçī©":1760,"æĢİ":1761,"æĤ£":1762,"å£«":1763,"ç§ģ":1764,"ç»ĩ":1765,"æŀĹ":1766,"å¿ĥçĲĨ":1767,"éĥ½æĺ¯":1768,"æĭŁ":1769,"åİĭåĬĽ":1770,"å¾®":1771,"ä»·æł¼":1772,"è¯¦ç»Ĩ":1773,"èĥĮ":1774,"ĸçķ¥":1775,"çŃĸçķ¥":1776,"å¾ħ":1777,"ç»¿":1778,"æľºä¼ļ":1779,"åĵģçīĮ":1780,"¾çĹħ":1781,"è¶ħ":1782,"æĻ®":1783,"Ġit":1784,"åĮħåĲ«":1785,"åĬ©äºİ":1786,"ä»ĸçļĦ":1787,"ä»Ĭå¤©":1788,"æłĳ":1789,"çİ°ä»£":1790,"å®¤":1791,"æĹħè¡Į":1792,"é¸¡":1793,"åħ´è¶£":1794,"åĮĹ":1795,"é¢ľ":1796,"The":1797,"æ²Ł":1798,"å±ŀ":1799,"å®ŀéĻħ":1800,"èµ°":1801,"Ġhe":1802,"000":1803,"é£ŀ":1804,"äºĨä¸Ģ":1805,"è¾ĵåĩº":1806,"æľīåĬ©äºİ":1807,"å¤ļå°ĳ":1808,"äºĶ":1809,"pt":1810,"éĺħ":1811,"å¦ĤæŀľæĤ¨":1812,"æĢ§çļĦ":1813,"æĵįä½ľ":1814,"æ·±åº¦":1815,"og":1816,"æĶ¹åıĺ":1817,"è¿ŀ":1818,"é¾":1819,"çĥ¤":1820,"åĪ»":1821,"éħĴ":1822,"åªĴä½ĵ":1823,"åģĩ":1824,"ĠM":1825,"ä¹Łæĺ¯":1826,"å¦Ĥæŀľä½ł":1827,"æĹħæ¸¸":1828,"æķĪæŀľ":1829,"ĠF":1830,"éĿĻ":1831,"åł":1832,"çļĦåľ°":1833,"æ¯į":1834,"éĶĻè¯¯":1835,"ç»Ļåĩº":1836,"æ¯Ķè¾ĥ":1837,"é±":1838,"ä¿ĥè¿Ľ":1839,"é¢ĳ":1840,"èįī":1841,"ain":1842,"å¥ĩ":1843,"é»Ħ":1844,"ĠThe":1845,"é±¼":1846,"Ġ0":1847,"æĦıè¯Ĩ":1848,"è¿ĩç¨ĭä¸Ń":1849,"çªģ":1850,"æ³ķå¾ĭ":1851,"æĬĢå·§":1852,"Ġde":1853,"æĺ¯ä»Ģä¹Ī":1854,"è¿½":1855,"åħ±åĲĮ":1856,"åįķè¯į":1857,"æľºåĻ¨äºº":1858,"éĴŁ":1859,"ä»¥ä¸Ĭ":1860,"pe":1861,"æ²ŁéĢļ":1862,"çĸ¾çĹħ":1863,"ä½ľåĵģ":1864,"os":1865,"æ©":1866,"Ġ`":1867,"æīįèĥ½":1868,"åįĹ":1869,"åĽ°":1870,"éĹ»":1871,"æ°ĶåĢĻ":1872,"åŃ©åŃĲ":1873,"åĩĨå¤ĩ":1874,"åŃĹç¬¦":1875,"è´Ńä¹°":1876,"ç¼º":1877,"15":1878,"æ¤įçī©":1879,"æĳĦ":1880,"ä¹Łåı¯ä»¥":1881,"æķ°åŃ¦":1882,"é¢ľèī²":1883,"å¿«éĢŁ":1884,"åĮĸçļĦ":1885,"Ġcan":1886,"ä»¥ä¾¿":1887,"our":1888,"12":1889,"åĦ¿":1890,"çļĦä¸Ģ":1891,"text":1892,"pl":1893,"æ¹":1894,"å¹³åı°":1895,"åĪ¤":1896,"æĻļ":1897,"çīĽ":1898,"åįģ":1899,"çĳ":1900,"è¯·éĹ®":1901,"èŃ":1902,"éĶĢåĶ®":1903,"åĬª":1904,"åıĳçĶŁ":1905,"è¯ĬæĸŃ":1906,"åħ¸":1907,"ä»¤":1908,"åºľ":1909,"åĩ»":1910,"çĶ·":1911,"å¥¶":1912,"é£İæł¼":1913,"ä¸¥":1914,"çģµ":1915,"è¾ĳ":1916,"ĠE":1917,"å¯»æī¾":1918,"åŁ¹":1919,"åĬªåĬĽ":1920,"Python":1921,"çĶµåŃĲ":1922,"èĩªæĪĳ":1923,"è´¢":1924,"äº¤æµģ":1925,"äºļ":1926,"æĭ¥æľī":1927,"æī§":1928,"¹æŀľ":1929,"è¿Ļæĺ¯":1930,"èĭ¹æŀľ":1931,"}{":1932,"ä¸Ģä½į":1933,"ç»Ħç»ĩ":1934,"em":1935,"ä¸ºæĤ¨":1936,"æļĸ":1937,"ess":1938,"èĩªçĦ¶è¯Ńè¨Ģ":1939,"\\)":1940,"çĶŁæĢģ":1941,"Ġx":1942,"åıĤä¸İ":1943,"å¹³è¡¡":1944,"Ġby":1945,"åĳĺå·¥":1946,"æķ°éĩı":1947,"åĴĸ":1948,"éĨ":1949,"ĠH":1950,"Ġ8":1951,"çī¹å¾ģ":1952,"çĶŁåĳ½":1953,"æ³¢":1954,"æ´ģ":1955,"éĺħè¯»":1956,"æ£ĢæŁ¥":1957,"Ġne":1958,"æķ£":1959,"æĪĳä¼ļ":1960,"èĵ":1961,"el":1962,"à¤":1963,"'s":1964,"frac":1965,"æĢĿèĢĥ":1966,"éĢĲ":1967,"æĹ©":1968,"è¶ĭ":1969,"Ġex":1970,"å¢ŀå¼º":1971,"å®Ŀ":1972,"æĪĲæľ¬":1973,"æŃ¢":1974,"æľīè¶£":1975,"æĶ¿åºľ":1976,"åĳĬè¯īæĪĳ":1977,"çİĭ":1978,"é²ľ":1979,"åºĵ":1980,"ä¸ľ":1981,"æ±½":1982,"çļĦæĸ¹æ³ķ":1983,"çĶŁæĪĲä¸Ģä¸ª":1984,"é¢Ŀ":1985,"æľĢç»Ī":1986,"ç»ª":1987,"è¿Ļç¯ĩ":1988,"è½¯ä»¶":1989,"åķ¡":1990,"æĿ¥è¶Ĭ":1991,"çļĦä¿¡æģ¯":1992,"æľīä»Ģä¹Ī":1993,"äº¬":1994,"æľīåħ³":1995,"ity":1996,"è¶ĬæĿ¥è¶Ĭ":1997,"æµª":1998,"åį¡":1999,"æ½ľ":2000,"èĦĳ":2001,"her":2002,"æıĲåįĩ":2003,"çĵ":2004,"åºĹ":2005,"ä¸ĢæŃ¥":2006,"æĤ£èĢħ":2007,"Ġwh":2008,"ä½ı":2009,"ç´§":2010,"éĢŁåº¦":2011,"æ´ĭ":2012,"å¤ľ":2013,"åĴĸåķ¡":2014,"éĩĳèŀį":2015,"ä¼¦":2016,"èģĮä¸ļ":2017,"åį°":2018,"çŃĳ":2019,"ult":2020,"ä¸ĭéĿ¢":2021,"ight":2022,"ç§»":2023,"åĳ¼":2024,"è¶ĭåĬ¿":2025,"åĿļ":2026,"ãĤ":2027,"åľºæĻ¯":2028,"èĴ":2029,"å°ıè¯´":2030,"èĶ":2031,"ue":2032,"çĶ±äºİ":2033,"åĪĿ":2034,"çķĮ":2035,"é¼ĵ":2036,"ç¾¤":2037,"å°Ĭ":2038,"Ġ7":2039,"åı¶":2040,"ĠW":2041,"ä¸´":2042,"åŁºæľ¬":2043,"éļĲç§ģ":2044,"å»ºçŃĳ":2045,"ment":2046,"åŁºç¡":2047,"è¡ĮåĬ¨":2048,"åŁºç¡Ģ":2049,"èĪĴ":2050,"æ¶ī":2051,"ĠD":2052,"âĢĿï¼Į":2053,"åħ¬åı¸çļĦ":2054,"Ġcom":2055,"æĿ¡ä»¶":2056,"æĿ¿":2057,"19":2058,"ind":2059,"éĢĤåºĶ":2060,"åī§":2061,"èģĶç³»":2062,"æł¸":2063,"ç¦ı":2064,"æĦıä¹ī":2065,"ä¸įèĥ½":2066,"äºĳ":2067,"å®ĥçļĦ":2068,"åİħ":2069,"ore":2070,"ĥåľ":2071,"çļĦç¾":2072,"ort":2073,"åı¯æĮģç»Ń":2074,"åĲ¸å¼ķ":2075,"åľŁ":2076,"è¯¾":2077,"åĤ¨":2078,"åŀĥåľ":2079,"åŀĥåľ¾":2080,"Ġ10":2081,"ant":2082,"ive":2083,"ä¸ĩ":2084,"æĥħç»ª":2085,"åıĺå¾Ĺ":2086,"æ²Ļ":2087,"å·´":2088,"ä½įç½®":2089,"åĲ§":2090,"äºĨä¸Ģä¸ª":2091,"ç¼ĵ":2092,"çŁ³":2093,"åĬłå¼º":2094,"æ°§":2095,"æĢİä¹Ī":2096,"éº":2097,"è¿ĺæĺ¯":2098,"å½©":2099,"ä¸ªæĢ§":2100,"age":2101,"Ġse":2102,"ice":2103,"é«ĺæķĪ":2104,"AIæĬĢæľ¯":2105,"ç¼ĸç¨ĭ":2106,"éĽ¨":2107,"ter":2108,"å¤ļç§į":2109,"çļ®":2110,"åĪĽä½ľ":2111,"æ¸Ĳ":2112,"æµĭè¯ķ":2113,"å¸¸è§ģ":2114,"åģļåĩº":2115,"Ġnumb":2116,"èĪŀ":2117,"è¯ŃéŁ³":2118,"å¤ļä¸ª":2119,"åģı":2120,"çī©è´¨":2121,"æĪĳåı¯ä»¥":2122,"éĵ¾":2123,"åĪĽå»º":2124,"åıĪ":2125,"ç»ĥä¹ł":2126,"åĽ¾åĥı":2127,"èĻ½":2128,"æ¸©åº¦":2129,"rom":2130,"æ·»":2131,"âĢĿãĢĤ":2132,"ç»Ļå®ļçļĦ":2133,"ç²ī":2134,"æĶ¾æĿ¾":2135,"æħ¢":2136,"tim":2137,"è¿ĺåı¯ä»¥":2138,"Ġ\\)":2139,"åĪĨéĴŁ":2140,"---":2141,"ä¸²":2142,"ç¥¨":2143,"Jo":2144,"åľ¨è¿Ļä¸ª":2145,"50":2146,"äºĭä»¶":2147,"av":2148,"éĻįä½İ":2149,"éŃ":2150,"éĩĩçĶ¨":2151,"ä¾Ŀ":2152,"ï¼ļâĢľ":2153,"å¾ª":2154,"çļĦç¤":2155,"ä½łå¥½":2156,"30":2157,"æĥ¯":2158,"å½ĵåľ°":2159,"é©¶":2160,"çĭ¬çī¹":2161,"rint":2162,"æ¨¡å¼ı":2163,"æ¯ıä¸ªäºº":2164,"ä¸Ģä»½":2165,"ç¾İåĽ½":2166,"æĸ°éĹ»":2167,"ç©¿":2168,"åĪĨäº«":2169,"èĩªçĦ¶è¯Ńè¨Ģå¤ĦçĲĨ":2170,"å®ļæľŁ":2171,"ä»£è¡¨":2172,"æ¶īåıĬ":2173,"é£Łåĵģ":2174,"ä½¿å¾Ĺ":2175,"åĬĽåĴĮ":2176,"æ¢¦":2177,"åħħæ»¡":2178,"æĺ¥":2179,"æ»¡è¶³":2180,"çī¹åĪ«":2181,"è¡Ģ":2182,"ãĢĤâĢĿ":2183,"å°Ĩä¼ļ":2184,"èĻ½çĦ¶":2185,"æ°´å¹³":2186,"èĥĮæĻ¯":2187,"æ±½è½¦":2188,"æĥħåĨµä¸ĭ":2189,"è¡£":2190,"ide":2191,"æĽ´å¥½çļĦ":2192,"å°±æĺ¯":2193,"ä»¥ç¡®ä¿Ŀ":2194,"çļĦç¾İ":2195,"ple":2196,"ä¸įä¼ļ":2197,"èľ":2198,"çĽ´æİ¥":2199,"éĥ½æľī":2200,"æī§è¡Į":2201,"å½¢æĪĲ":2202,"å¦Ĥä¸ĭ":2203,"ä¸Ģæ¬¡":2204,"æłĩåĩĨ":2205,"èĻļ":2206,"æŁĲäºĽ":2207,"æ°´æŀľ":2208,"è¿İ":2209,"åĨ°":2210,"çī¹çĤ¹":2211,"æĹı":2212,"hn":2213,"èģĬ":2214,"çĦ¶èĢĮ":2215,"ä¸īä¸ª":2216,"åİŁåĽł":2217,"å½¢å¼ı":2218,"ence":2219,"æĶ¿çŃĸ":2220,"ä¸¾":2221,"åľ°åĮº":2222,"å½Ĵ":2223,"è¿Ļç¯ĩæĸĩç«ł":2224,"ç»¼":2225,"ä¹łæĥ¯":2226,"ä¸įè¦ģ":2227,"èª":2228,"çķĻ":2229,"ine":2230,"è¿ĻéĩĮ":2231,"çĩ":2232,"ction":2233,"Ġle":2234,"æĪĲåĳĺ":2235,"ç¨³":2236,"å°Ħ":2237,"ä»ĺ":2238,"æĶ¹åĸĦ":2239,"oc":2240,"èĶ¬":2241,"ä¼¤":2242,"æī¿":2243,"éĢı":2244,"çŃīæĸ¹éĿ¢":2245,"äººç±»çļĦ":2246,"å®ĥä»¬çļĦ":2247,"SS":2248,"æľªæĿ¥çļĦ":2249,"æĭħ":2250,"ç¬Ķ":2251,"ç«ŀ":2252,"100":2253,"æĢ§èĥ½":2254,"ĠR":2255,"é¼ĵåĬ±":2256,"ç¤¾äº¤åªĴä½ĵ":2257,"é¦Ī":2258,"éļľ":2259,"æĺ¯åľ¨":2260,"for":2261,"John":2262,"__":2263,"de":2264,"ç»Ļå®ļ":2265,"æĺ¯çļĦ":2266,"åĨĻä¸Ģç¯ĩåħ³äºİ":2267,"äº²":2268,"Ġ'":2269,"èī²çļĦ":2270,"ä½łèĥ½":2271,"æĿ¯":2272,"é¡»":2273,"Ġus":2274,"æīĭæľº":2275,"èĵĿ":2276,"æıĲä¾ĽäºĨ":2277,"æĦŁè§ī":2278,"å¹´è½»":2279,"ç§ĭ":2280,"æ¥":2281,"æĸ¹åĲĳ":2282,"çł´":2283,"æĮīçħ§":2284,"å©":2285,"åı¯ä»¥ä½¿çĶ¨":2286,"sw":2287,"ure":2288,"æĳĺ":2289,"ç«¯":2290,"ĠL":2291,"Ġtr":2292,"åºĶå¯¹":2293,"çľł":2294,"ä¹ĺ":2295,"è±Ĩ":2296,"åıįé¦Ī":2297,"å¯Ł":2298,"ç¼ĸåĨĻ":2299,"èĶ¬èıľ":2300,"è®¨è®º":2301,"åĲįç§°":2302,"åĨľ":2303,"æĹ¥æľŁ":2304,"Ġk":2305,"æĥ³è¦ģ":2306,"èĲ¥éĶĢ":2307,"end":2308,"å¹³åĿĩ":2309,"é©¾":2310,"éĢłæĪĲ":2311,"ï¼īï¼Į":2312,"é¸Ł":2313,"ä¸ĸ":2314,"çĹĩ":2315,"è®°å½ķ":2316,"æ·±åº¦åŃ¦ä¹ł":2317,"ä»į":2318,"çļĦæķ°æį®":2319,"out":2320,"åº¦åĴĮ":2321,"æĦ¿":2322,"å¿Ĺ":2323,"æľ¨":2324,"çī¹å®ļ":2325,"æ¯ıå¤©":2326,"\":":2327,"æĺ¯æĮĩ":2328,"ä¼ĳ":2329,"å¡ĳ":2330,"æĶ¹è¿Ľ":2331,"è§īå¾Ĺ":2332,"å¨ģ":2333,"é¤Ĳåİħ":2334,"à¸":2335,"ä½³":2336,"æ·±åħ¥":2337,"äº®":2338,"éĢĤçļĦ":2339,"ub":2340,"åħ·ä½ĵçļĦ":2341,"å½ĵçĦ¶åı¯ä»¥":2342,"åı¥è¯Ŀ":2343,"åŃĹç¬¦ä¸²":2344,"è´£ä»»":2345,"éĴĪ":2346,"åı¯ä»¥åľ¨":2347,"æ¶Īè´¹":2348,"æ¯ĶèµĽ":2349,"æĽ¿":2350,"æĹ¶åĢĻ":2351,"åĨ·":2352,"å¿ħé¡»":2353,"æİĮ":2354,"åıįåºĶ":2355,"èĲ¥åħ»":2356,"ç½ĳç«Ļ":2357,"åıĤåĬł":2358,"å®ļä¹ī":2359,"Ġ9":2360,"ä¸ĢåĲį":2361,"ag":2362,"èĤ¡":2363,"ç§ĺ":2364,"åĮ»åŃ¦":2365,"Ġch":2366,"ç»§":2367,"éĢģ":2368,"åĽ½å®¶":2369,"çĮ®":2370,"èĮĥåĽ´":2371,"åĲĮæĹ¶ä¹Ł":2372,"åľ¨åĮ»çĸĹ":2373,"ĠN":2374,"æ°ĶåĢĻåıĺåĮĸ":2375,"ase":2376,"äººåĳĺ":2377,"å®¹æĺĵ":2378,"æł¡":2379,"èİ·åıĸ":2380,"æĺİç¡®":2381,"çĸ«":2382,"æĹ¥å¸¸":2383,"åķĨåĵģ":2384,"art":2385,"äº«åıĹ":2386,"ies":2387,"ï¼īãĢĤ":2388,"æĥ³æ³ķ":2389,"è·Ł":2390,"é¡¾":2391,"é¦Ĩ":2392,"nd":2393,"ill":2394,"Ġ[":2395,"æ´²":2396,"èĹ":2397,"æ·»åĬł":2398,"æİ¨åĬ¨":2399,"æ¦Ĥå¿µ":2400,"é«ĺçļĦ":2401,"Ġnot":2402,"âĢĶ":2403,"å±Ģ":2404,"çļĦæĹ¶éĹ´":2405,"åĬŀ":2406,"åıĮ":2407,"å°Ĩåħ¶":2408,"åº§":2409,"ä¸Ńæĸĩ":2410,"é¡º":2411,"æķ´ä¸ª":2412,"èĩªåĬ¨åĮĸ":2413,"Ġun":2414,"æ··":2415,"çľĭåĪ°":2416,"\",":2417,"ord":2418,"è½¬æį¢":2419,"èĩªçĶ±":2420,"å°ıçº¢":2421,"çİ°å®ŀ":2422,"çĦ¦":2423,"è§£åĨ³æĸ¹æ¡Ī":2424,"æĦŁåıĹ":2425,"è¯ĹæŃĮ":2426,"çĬ¶æĢģ":2427,"è§ĤçĤ¹":2428,"å²ģ":2429,"å¾Ħ":2430,"æĲľ":2431,"æĢ»ç»ĵ":2432,"å·¨":2433,"çĿ¡":2434,"åĲĪçĲĨ":2435,"éħ¸":2436,"åºķ":2437,"éĻ¢":2438,"æĲŃ":2439,"æ´Ĺ":2440,"æįŁ":2441,"å¤ļæł·":2442,"è·Ŀ":2443,"ç¬¦åĲĪ":2444,"èŃ¦":2445,"æµģç¨ĭ":2446,"è®©æĪĳä»¬":2447,"è¿Ļæ®µ":2448,"å¯»æ±Ĥ":2449,"ob":2450,"èĳĹåĲį":2451,"å®ĩ":2452,"ie":2453,"åľ¨çº¿":2454,"è¿ĽæŃ¥":2455,"éĩİ":2456,"çĽĸ":2457,"Ġ20":2458,"çĨŁ":2459,"éĿĴ":2460,"èģĶç½ĳ":2461,"print":2462,"é¢ĺçĽ®":2463,"Ġnumber":2464,"éĤ®":2465,"èĭ±æĸĩ":2466,"ç¥ŀç»ı":2467,"ä¸Ńå¿ĥ":2468,"åħ³éĶ®è¯į":2469,"çīĪ":2470,"æ´ŀ":2471,"ĠG":2472,"çļĦå»ºè®®":2473,"ĠĠĊ":2474,"ä¾ĭåŃĲ":2475,"éĢĤå½ĵ":2476,"tep":2477,"çľ¼":2478,"ç»ıåİĨ":2479,"ç»ĦæĪĲ":2480,"times":2481,"ä¸ĢçĽ´":2482,"æıĲåĩº":2483,"å¤©çļĦ":2484,"è®¿":2485,"çĤ¼":2486,"èĮ¶":2487,"é©¾é©¶":2488,"èį¯çī©":2489,"å¸®æĪĳ":2490,"éĿł":2491,"ç½Ĺ":2492,"ans":2493,"å°Ĭéĩį":2494,"æĸĩä»¶":2495,"ĠÃ":2496,"åĨ²":2497,"åĳ¼åĲ¸":2498,"æı¡":2499,"ç¤¼":2500,"æĴŃ":2501,"æ®µèĲ½":2502,"ç©ºéĹ´":2503,"è·ĳ":2504,"åĨ³å®ļ":2505,"äºĭæĥħ":2506,"çļĦçĶŁæ´»":2507,"æ±ĩ":2508,"å¼ºè°ĥ":2509,"è¶³å¤Ł":2510,"æŃ§":2511,"çĽ®åīį":2512,"å¯¹è¯ĿåĨħå®¹":2513,"oo":2514,"swer":2515,"åķĨä¸ļ":2516,"çļĦçł":2517,"ä¸ºä»Ģä¹Ī":2518,"æĩ":2519,"åĪ¤æĸŃ":2520,"ç¢³":2521,"ap":2522,"25":2523,"urn":2524,"æİĴåºı":2525,"ç»´æĬ¤":2526,"OSS":2527,"æŀ¶":2528,"åĮĹäº¬":2529,"éĺ¿":2530,"çļĦç¤¾":2531,"ä¸Ģé¦ĸ":2532,"ç©ºæ°Ķ":2533,"èĪª":2534,"éģµ":2535,"Ġåľ¨":2536,"ach":2537,"æ¬¢è¿İ":2538,"Ġqu":2539,"æľºæŀĦ":2540,"æĸĩåŃ¦":2541,"åºĶçĶ¨ç¨ĭåºı":2542,"åĪĽæĦı":2543,"éĺ³åħī":2544,"å®ĺ":2545,"æĳĺè¦ģ":2546,"è¿Ľä¸ĢæŃ¥":2547,"å½ĵåīį":2548,"ç¹":2549,"è¿Ļä¸Ģ":2550,"ame":2551,"åĬĽéĩı":2552,"çĽĲ":2553,"èĸ":2554,"å¿ħè¦ģ":2555,"è·µ":2556,"ç»§ç»Ń":2557,"æ¼«":2558,"åį«":2559,"èģļ":2560,"åŃ¦ä¹łåĴĮ":2561,"è¿Ķ":2562,"ç¾İä¸½":2563,"å¿Ĩ":2564,"ial":2565,"ç³ĸæŀľ":2566,"è¯¾ç¨ĭ":2567,"çļĦå·¥ä½ľ":2568,"è§ĦåĪĴ":2569,"éĻĲåĪ¶":2570,"èī¯å¥½çļĦ":2571,"()":2572,"Ġ*":2573,"ĠO":2574,"ä¼´":2575,"å±ķç¤º":2576,"éĹ®é¢ĺçļĦ":2577,"å°¼":2578,"act":2579,"æĶ¶éĽĨ":2580,"éģĵå¾·":2581,"ä¸ŃæıĲåıĸ":2582,"è®©æĪĳ":2583,"å®ŀè·µ":2584,"è°¢è°¢":2585,"åıĬæĹ¶":2586,"è¸":2587,"ç«ŀäºī":2588,"ike":2589,"æĲľç´¢":2590,"ä¸įåı¯":2591,"Ġat":2592,"éħ±":2593,"åĽ°éļ¾":2594,"å³":2595,"ust":2596,"ä¸Ģå®ļ":2597,"è®¾ç½®":2598,"ave":2599,"éĢĶ":2600,"èĢĮä¸Ķ":2601,"åħ¶æ¬¡":2602,"are":2603,"18":2604,"äºĴåĬ¨":2605,"èĭ±è¯Ń":2606,"éĵ¶":2607,"uc":2608,"æľīçĿĢ":2609,"Ġres":2610,"å¤§éĩıçļĦ":2611,"ç®±":2612,"åıªæľī":2613,"æ²³":2614,"æĬĢæľ¯çļĦ":2615,"202":2616,"çºª":2617,"å°ıæĹ¶":2618,"éĶ»":2619,"å¥ĸ":2620,"é¥°":2621,"åī©":2622,"é¢Ĺ":2623,"éĴ±":2624,"éĶ»çĤ¼":2625,"iz":2626,"æĦŁè°¢":2627,"å¹¸":2628,"çļĦçĥ":2629,"æİĴæĶ¾":2630,"çī©çĲĨ":2631,"ib":2632,"æľīäºĽ":2633,"ions":2634,"çļĦæĸ¹å¼ı":2635,"åĲįåŃĹ":2636,"Ġme":2637,"æľīæ²¡æľī":2638,"åĿı":2639,"åĭĩ":2640,"æ£®":2641,"python":2642,"éĿ¢ä¸´":2643,"éĢĲæ¸Ĳ":2644,"å®¶å±ħ":2645,"æī©":2646,"èĨ":2647,"æķĪçİĩåĴĮ":2648,"è´§":2649,"çļĦç¬":2650,"ä¸įéĶĻ":2651,"ç»ĵåĲĪ":2652,"MOSS":2653,"çĬ¶åĨµ":2654,"åįĬ":2655,"ä¹ĭåīį":2656,"çĽ¸åħ³çļĦ":2657,"æµ·æ´ĭ":2658,"Ġen":2659,"å®Ļ":2660,"Ġj":2661,"æİ¥åıĹ":2662,"å°ļ":2663,"æĪĲéķ¿":2664,"æľīæīĢ":2665,"çıŃ":2666,"çĶ¨çļĦ":2667,"åľĨ":2668,"éģĹ":2669,"erm":2670,"æĢĿç»´":2671,"åı¯ä»¥è®©":2672,"åĴ¨":2673,"æ¸ħæĻ":2674,"ä¼¦çĲĨ":2675,"éĿ¢çļĦ":2676,"èĢħçļĦ":2677,"ç¬¬äºĮ":2678,"ç¾İé£Ł":2679,"Ġsh":2680,"ç³»åĪĹ":2681,"æĬĺ":2682,"è§ĦåĪĻ":2683,"çĭ¬çī¹çļĦ":2684,"å®ĩå®Ļ":2685,"æĮĩå¯¼":2686,"åįļ":2687,"ox":2688,"è¯´æĺİ":2689,"ang":2690,"åĴ¨è¯¢":2691,"çļĦçľ":2692,"çģ¯":2693,"ä½Ļ":2694,"ãĥ":2695,"åį±":2696,"å¸ģ":2697,"åı£æĦŁ":2698,"çĸĳ":2699,"åŃĺåĤ¨":2700,"put":2701,"è¿Ļæĺ¯ä¸Ģä¸ª":2702,"ä¸ĭæĿ¥":2703,"ãĢĤ-":2704,"åı¯ä»¥å¸®åĬ©ä½ł":2705,"åĪĨéħį":2706,"æĦıåĳ³":2707,"åĲİçļĦ":2708,"ime":2709,"æľīå¾Īå¤ļ":2710,"å®ŀéªĮ":2711,"ak":2712,"å®Ī":2713,"ä¼½":2714,"è¿ĶåĽŀ":2715,"**:":2716,"ä½ĵçļĦ":2717,"æ¯Ĵ":2718,"æŃ£ç¡®çļĦ":2719,"åĽ½éĻħ":2720,".\"":2721,"çī©åĵģ":2722,"åį´":2723,"æŃ§è§Ĩ":2724,"ost":2725,"çļĦä¸»è¦ģ":2726,"åı¯ä»¥å¸®åĬ©æĤ¨":2727,"ĠĠĠĠĠ":2728,"è¿ŀæİ¥":2729,"éĤ®ä»¶":2730,"æĹłè®º":2731,"è§Ĩè§ī":2732,"åı«":2733,"all":2734,"èĪ¬":2735,"ical":2736,"éľĢè¦ģæ³¨æĦı":2737,"æĢ¥":2738,"Ġfrom":2739,"éĿ¢å¯¹":2740,"turn":2741,"æķ°æį®çļĦ":2742,"åĵĪ":2743,"æĪĳä»¬åºĶè¯¥":2744,"çĽĺ":2745,"ç¹ģ":2746,"ich":2747,"ould":2748,"å®¡":2749,"Ġte":2750,"éŁ":2751,"æ»©":2752,"æ¯Ľ":2753,"æĬ¥åĳĬ":2754,"åĢĴ":2755,"åĮĸåŃ¦":2756,"è·Ŀç¦»":2757,"åģľ":2758,"éĩıåŃĲ":2759,"åı¦å¤ĸ":2760,"æĦıåĳ³çĿĢ":2761,"ç®ĢåįķçļĦ":2762,"åĬĽçļĦ":2763,"æİ¨å¹¿":2764,"éģĩåĪ°":2765,"è¿Ļä¸ªéĹ®é¢ĺ":2766,"åıĤæķ°":2767,"è¿½æ±Ĥ":2768,"æ¤Ĵ":2769,"æĮ¥":2770,"ľä¼½":2771,"è·³":2772,"ç¿»è¯ĳæĪĲ":2773,"æŃĮæĽ²":2774,"å®Įåħ¨":2775,"è´¡":2776,"èĻļæĭŁ":2777,"åĪ¶éĢł":2778,"----":2779,"èĪĴéĢĤ":2780,"æ³¨éĩį":2781,"åĢĭ":2782,"éľ²":2783,"æİĮæı¡":2784,"åĲĪéĢĤçļĦ":2785,"å®£":2786,"ä¸¥éĩį":2787,"ï¼ļ```":2788,"èĢģå¸Ī":2789,"ï¼ļ-":2790,"å¤§åĪ©":2791,"ount":2792,"çĻ¾":2793,"Ġthis":2794,"éĴĪå¯¹":2795,"å¤§å°ı":2796,"è´¡çĮ®":2797,"èĦĤ":2798,"ç»Ŀ":2799,"able":2800,"ãĢĤ\"":2801,"å¥ı":2802,"èĽĭçĻ½":2803,"æľĢå¤§":2804,"éĵģ":2805,"å¤§éĩı":2806,"å¹»":2807,"ç¤¾åĮº":2808,"ç¨³å®ļ":2809,"åŁ¹è®Ń":2810,"):":2811,"ç£":2812,"éĿ©":2813,"åįĥ":2814,"çŃīé¢ĨåŁŁ":2815,"åģ¥èº«":2816,"éĩįæĸ°":2817,"çĦ¦èĻĳ":2818,"fe":2819,"ç»ĨèĬĤ":2820,"äººå·¥æĻºèĥ½çļĦ":2821,"æľīä¸Ģä¸ª":2822,"Tom":2823,"æłĩé¢ĺ":2824,"his":2825,"è´Ńçī©":2826,"æ¶²":2827,"åĪļ":2828,"æ±¤":2829,"ring":2830,"éķ¿æľŁ":2831,"æİ¢è®¨":2832,"æĶ»":2833,"æĪĳè®¤ä¸º":2834,"æĤ¨éľĢè¦ģ":2835,"èĢĲ":2836,"èĤĮ":2837,"ç¬ĳ":2838,"è´ŁéĿ¢":2839,"éĻ¤äºĨ":2840,"çħ®":2841,"çº³":2842,"to":2843,"åı¯èĥ½éľĢè¦ģ":2844,"æľĢä½³":2845,"æŁĶ":2846,"ud":2847,"ĠU":2848,"éĢīé¡¹":2849,"éĢ»":2850,"èĥľ":2851,"åĽº":2852,"èĹı":2853,"Ġal":2854,"æĲŃéħį":2855,"è¯Ńæ³ķ":2856,"åĿĲ":2857,"å·®å¼Ĥ":2858,"æĬĹ":2859,"ä¸ļåĬ¡":2860,"è®¿éĹ®":2861,"Ġpl":2862,"å·¥ç¨ĭ":2863,"è´¢åĬ¡":2864,"Ġå°Ĩ":2865,"ä½łéľĢè¦ģ":2866,"one":2867,"éķ¿åº¦":2868,"çĽ¸äºĴ":2869,"per":2870,"ç»¿èī²":2871,"çļĦæķħäºĭ":2872,"çļĦçłĶ":2873,"éĶħ":2874,"çĤĴ":2875,"æķı":2876,"äº¤æĺĵ":2877,"åŃ£èĬĤ":2878,"æ¸ħæĻ°":2879,"çĶľ":2880,"çĪ±æĥħ":2881,"ile":2882,"å¸¸è§ģçļĦ":2883,"ä¹Łä¼ļ":2884,"åºĶçļĦ":2885,"æĳĦåħ¥":2886,"çĥĪ":2887,"éĢ»è¾ĳ":2888,"æµĵ":2889,"è§Ĩé¢ĳ":2890,"åĨĽ":2891,"çī¹å®ļçļĦ":2892,"è¾¾åĪ°":2893,"éĢĴ":2894,"çº¸":2895,"æ²ī":2896,"èĤ¤":2897,"å®ł":2898,"è°Ī":2899,"åŃĹæ¯į":2900,"Ġdo":2901,"å±ŀäºİ":2902,"å¹¿åĳĬ":2903,"form":2904,"å®īæİĴ":2905,"åı³":2906,"è¾Ĩ":2907,"æľīä¸Ģ":2908,"å¾ªçİ¯":2909,"åĲ¯":2910,"æĺł":2911,"å¼ķèµ·":2912,"åĴĮåħ¶ä»ĸ":2913,"é¾Ļ":2914,"ange":2915,"å¥³æĢ§":2916,"çĶ¨æĿ¥":2917,"çĽ¸å¯¹":2918,"äºĴèģĶç½ĳ":2919,"çĲĨè®º":2920,"è¿Ĳè¡Į":2921,"åħ¬åħ±":2922,"åĴĮæĸĩåĮĸ":2923,"å¢ŀéķ¿":2924,"ä½łè®¤ä¸º":2925,"ç¾İåħĥ":2926,"é¾Ħ":2927,"æĽ´æĸ°":2928,"è®©äºº":2929,"æĿŁ":2930,"è¾ħ":2931,"çİ¯å¢ĥä¿ĿæĬ¤":2932,"è½½":2933,"ä¼ļè®®":2934,"çļĦçĪ":2935,"com":2936,"16":2937,"æķ°æį®åĪĨæŀĲ":2938,"éĨĴ":2939,"éĢĻ":2940,"èĦļ":2941,"Ġ12":2942,"çĳľä¼½":2943,"å·¦":2944,"å¡ĳæĸĻ":2945,"çİ°è±¡":2946,"ä¸°å¯ĮçļĦ":2947,"ä¹ħ":2948,"ip":2949,"æķ´æķ°":2950,"ack":2951,"åĬ³":2952,"éļıæľº":2953,"æ¸ħæ´ģ":2954,"æ·±åĪ»":2955,"éĺ¶":2956,"åºĶçĶ¨äºİ":2957,"æµģè¡Į":2958,"åĹ":2959,"éĩįå¤į":2960,"ĠçļĦ":2961,"æ··åĲĪ":2962,"ä¿Ŀè¯ģ":2963,"ast":2964,"æĽ´å¥½åľ°çĲĨè§£":2965,"æĬ½":2966,"ä¸įè¿ĩ":2967,"æĥĬ":2968,"æĢĿæĥ³":2969,"ä¼ĺåĬ¿":2970,"åįĪ":2971,"..":2972,"éĿ¢ç§¯":2973,"èµı":2974,"è§¦":2975,"ç±į":2976,"çļĦåľ°æĸ¹":2977,"Ġad":2978,"å®łçī©":2979,"å¹¶åľ¨":2980,"çĽ¸ä¿¡":2981,"ä»¥ä¸ĭåĩłä¸ª":2982,"çļĦéľĢæ±Ĥ":2983,"è¡ĮæĺŁ":2984,"ary":2985,"åĨĻä½ľ":2986,"æĹ¶éĹ´åĴĮ":2987,"èĥ½éĩı":2988,"ä½łä»¬":2989,"æĢ»çļĦ":2990,"æ¨¡æĭŁ":2991,"æŁ¥è¯¢":2992,"åħ°":2993,"é¥Ń":2994,"æ½ľåľ¨":2995,"æľīæķĪçļĦ":2996,"\\[":2997,"çķ¥":2998,"åıĳæĮ¥":2999,"ä»įçĦ¶":3000,"ĠĠĊĠĠ":3001,"ç»ıåħ¸":3002,"åħ¬åĽŃ":3003,"çĽĳæµĭ":3004,"cl":3005,"åĪĨåĪ«":3006,"è¡¨æĺİ":3007,"åĩıè½»":3008,"çĹĽ":3009,"ä¸ĵæ³¨":3010,"ç¼©":3011,"è®²è¿°":3012,"åıĸå¾Ĺ":3013,"è®¢":3014,"å¹¶ä¸į":3015,"11":3016,"çļĦå°ı":3017,"æĦıæĢĿ":3018,"Ġyour":3019,"æ£®æŀĹ":3020,"ç¨ĭåº¦":3021,"æľ«":3022,"å¸¦æĿ¥äºĨ":3023,"ç³ķ":3024,"ork":3025,"æ£Ģæµĭ":3026,"çĶŁæ´»ä¸Ń":3027,"æĢ»çļĦæĿ¥è¯´":3028,"Ġper":3029,"op":3030,"èĲ¨":3031,"å°¤":3032,"æ±ģ":3033,"ç»ıå¸¸":3034,"çģ¾":3035,"ç»ĺ":3036,"çĶŁæĢģç³»ç»Ł":3037,"æ±ł":3038,"æ¹¿":3039,"ook":3040,"è¯ļ":3041,"åį³åı¯":3042,"ä¿Ŀåģ¥":3043,"ä»¥ä¸ĭæĺ¯ä¸Ģ":3044,"åŃ¦æł¡":3045,"åķĬ":3046,"çľģ":3047,"tal":3048,"è´µ":3049,"å©ļ":3050,"ard":3051,"hat":3052,"åĢ¼å¾Ĺ":3053,"æĺ¯çĶ±":3054,"èĢĹ":3055,"æļ´":3056,"åı¯æĮģç»Ńåıĳå±ķ":3057,"ç»Ļä½ł":3058,"å·ŀ":3059,"çļĦçłĶç©¶":3060,"è¿·":3061,"éĢĤå½ĵçļĦ":3062,"åı¯èĥ½çļĦ":3063,"æľīåĵªäºĽ":3064,"60":3065,"ance":3066,"éŃĶ":3067,"çİĽ":3068,"çĽ¸åĲĮ":3069,"æĦıå¤§åĪ©":3070,"é¡µ":3071,"ä¸ªæĢ§åĮĸ":3072,"inal":3073,"åĨħéĥ¨":3074,"æľīè¶£çļĦ":3075,"æł¸å¿ĥ":3076,"çŃ¾":3077,"çļĦåħ³éĶ®":3078,"åĮĢ":3079,"æ¬§":3080,"ne":3081,"ĠY":3082,"ç¼ĵè§£":3083,"è¿ĩåº¦":3084,"æĹ¶å°ļ":3085,"çļĦæĥħæĦŁ":3086,"num":3087,"å¹´é¾Ħ":3088,"è¿ĩåİ»":3089,"æķĳ":3090,"åīĤ":3091,"çĥ§":3092,"æĶ¯ä»ĺ":3093,"èĢĮä¸įæĺ¯":3094,"è·¨":3095,"åģĩè®¾":3096,"Ġprov":3097,"çīĻ":3098,"é¢Ħç®Ĺ":3099,"æľºåĪ¶":3100,"çļĦæĬĢæľ¯":3101,"Al":3102,"äººçī©":3103,"åĬ©æīĭ":3104,"çľŁæŃ£":3105,"ç»ĦåĲĪ":3106,"æĽ¾":3107,"åħ¬å¼ı":3108,"ç±»åŀĭçļĦ":3109,"è¯Ŀé¢ĺ":3110,"çļĦç¨":3111,"æ»¡æĦı":3112,"çĩĥ":3113,"ãĢĤ\\":3114,"ç¾İåĳ³":3115,"å¹¸ç¦ı":3116,"èķ":3117,"éĽª":3118,"èī¾":3119,"æĥħèĬĤ":3120,"åŃ¸":3121,"çĶŁéķ¿":3122,"è¢ĭ":3123,"æ°¸":3124,"æĿ¥æºĲ":3125,"ä½įäºİ":3126,"ĠJ":3127,"æ±ī":3128,"åĸľæ¬¢çļĦ":3129,"æ©Ļ":3130,"ä¼ĳæģ¯":3131,"åı£åĳ³":3132,"åĨĴ":3133,"ĠÐ":3134,"æ³¡":3135,"ear":3136,"Ġhave":3137,"æĻºèĥ½å®¶å±ħ":3138,"çĬ¯":3139,"æ°Ľ":3140,"æħ§":3141,"åı¯éĿł":3142,"æĹ¨":3143,"Ġlike":3144,"æĦī":3145,"çļĦç¼":3146,"è³":3147,"200":3148,"åĢ¾":3149,"è¯Ħè®º":3150,"ç§»åĬ¨":3151,"æĹĭ":3152,"ä¸Ŀ":3153,"ç¥ŀç»ıç½ĳç»ľ":3154,"åı¯èĥ½æĺ¯":3155,"é¹":3156,"con":3157,"èĳĹåĲįçļĦ":3158,"å®ŀæĹ¶":3159,"ç¥Ŀ":3160,"Ġim":3161,"ç»©":3162,"éģį":3163,"Ġar":3164,"åģ¥åº·çļĦ":3165,"å¾Īå¥½":3166,"çİ©å®¶":3167,"åŃ¤":3168,"ç§°ä¸º":3169,"',":3170,"æĶ¶åħ¥":3171,"Ġman":3172,"å®½":3173,"(\"":3174,"å²Ľ":3175,"çļĦçģ":3176,"è¾£":3177,"æĪĲä¸ºäºĨ":3178,"ire":3179,"å³°":3180,"èµĸ":3181,"éŀ":3182,"è¿Ļæĺ¯ä¸Ģ":3183,"åĩºæĿ¥":3184,"èĿ":3185,"Ġtotal":3186,"åĩĢ":3187,"æĸĩåĮĸåĴĮ":3188,"è¡¥":3189,"çĶµè§Ĩ":3190,"è§£åĨ³éĹ®é¢ĺ":3191,"14":3192,"èĽĭçĻ½è´¨":3193,"éļıæĹ¶":3194,"çĽ¸ä¼¼":3195,"åĬ¨ä½ľ":3196,"ax":3197,"entence":3198,"éĸ":3199,"çļĦçº":3200,"up":3201,"ä¸ĬæľĢ":3202,"åĲ¬èµ·æĿ¥":3203,"æĻºæħ§":3204,"ific":3205,"ress":3206,"æ³³":3207,"å¤ıå¤©":3208,"row":3209,"æĸ¹éĿ¢çļĦ":3210,"åºŁ":3211,"åĨ¥":3212,"åŃĲçļĦ":3213,"éĿŀå¸¸éĩįè¦ģçļĦ":3214,"app":3215,"ren":3216,"å¿ĺ":3217,"æĸĩåŃĹ":3218,"çļĦå®īåħ¨":3219,"è¸ª":3220,"±ä¹Ĳ":3221,"ä½ľèĢħ":3222,"åıĺéĩı":3223,"ç§ĳåŃ¦å®¶":3224,"éĽ¶":3225,"èĤ¥":3226,"å¸®åĬ©æĤ¨":3227,"å¹³çŃī":3228,"æ¸©æļĸ":3229,"è©":3230,"å£°éŁ³":3231,"ç¥ŀç§ĺ":3232,"åĽ¢éĺŁæĪĲåĳĺ":3233,"åºĬ":3234,"è¯Ħä»·":3235,"éªĮè¯ģ":3236,"è¿Ļåı¥è¯Ŀ":3237,"çĶµèĦĳ":3238,"æļĹ":3239,"ä¿®æĶ¹":3240,"æ¶¦":3241,"ç§Ģ":3242,"ace":3243,"ä½Ľ":3244,"æĻ¯çĤ¹":3245,"èĤ¡ç¥¨":3246,"å¥¥":3247,"åĺ":3248,"é«ĺåº¦":3249,"åĮºåŁŁ":3250,"è§Ĥå¯Ł":3251,"å¤«":3252,"åľ°æĸ¹":3253,"è°±":3254,"ä»¤äºº":3255,"æīĢéľĢ":3256,"æľīæķĪåľ°":3257,"éĤ£äºĽ":3258,"æį·":3259,"åı¯ä»¥æł¹æį®":3260,"Ġequ":3261,"æĿ¥èĩª":3262,"èĳ±":3263,"æł·çļĦ":3264,"å§Ĩ":3265,"æĶ¾åľ¨":3266,"åĵªä¸ª":3267,"To":3268,"æĭ¼":3269,"æĺ¾ç¤º":3270,"ä¸Ģæ®µå¯¹è¯Ŀ":3271,"Ġsu":3272,"rent":3273,"ç¼ĸè¾ĳ":3274,"iven":3275,"æ°§åĮĸ":3276,"æĹ¥æľ¬":3277,"è§Ĥä¼Ĺ":3278,"Ġab":3279,"ç±»ä¼¼":3280,"cri":3281,"è®°å¿Ĩ":3282,"ä¹¦ç±į":3283,"ç¡®å®ŀ":3284,"æľĿ":3285,"æ¡£":3286,"å¹´çļĦ":3287,"éĢĤéĩı":3288,"æ¡Ĩ":3289,"è¡¨æł¼":3290,"Ġspe":3291,"æĹ¶æľŁ":3292,"æĭ¿":3293,"ä¹İ":3294,"åį·":3295,"åŃ¦ä¼ļ":3296,"Ġval":3297,"æĸ¹ç¨ĭ":3298,"ç²¾ç¥ŀ":3299,"å»¶":3300,"çļĦé£İéĻ©":3301,"é¢Ħéĺ²":3302,"ĠæĪĳ":3303,"çĶ¨æĪ·çļĦ":3304,"åıĹæ¬¢è¿İ":3305,"åĿļæĮģ":3306,"åľ¨äºİ":3307,"åĳĪ":3308,"è¿Ļå°Ĩ":3309,"æıĲä¾Ľä¸ĢäºĽ":3310,"Ġ||":3311,"ç¡¬":3312,"æĸ¹ä¾¿":3313,"è¹":3314,"è¿ĺéľĢè¦ģ":3315,"ated":3316,"æŁĲä¸ª":3317,"Ġ/":3318,"æĹ¢":3319,"ä»ĸäºº":3320,"æ¶Īè´¹èĢħ":3321,"ï¼īï¼ļ":3322,"è¿Ľåħ¥":3323,"åĨ¥æĥ³":3324,"ä¸»ä¹ī":3325,"æĪĳå°Ĩ":3326,"åĵ²":3327,"å¿«ä¹Ĳ":3328,"èĥ¡":3329,"Ġhas":3330,"åı¤ä»£":3331,"ä¸ĢèĪ¬":3332,"åħħåĪĨ":3333,"æ»ĳ":3334,"èģĬå¤©":3335,"å¤ªç©º":3336,"é¥¼":3337,"40":3338,"åĪĹåĩº":3339,"çĶŁåŃĺ":3340,"Ġ15":3341,"èĮĦ":3342,"çĿ¡çľł":3343,"ä¸ŃæľĢ":3344,"å¿ħè¦ģçļĦ":3345,"è½¬æį¢ä¸º":3346,"Ġ#":3347,"ç¨İ":3348,"çļĦéĩįè¦ģæĢ§":3349,"å¥Ĺ":3350,"è§Ĵèī²ä¿¡æģ¯":3351,"æīĢè¿°":3352,"æ®Ĭ":3353,"è°·":3354,"ä¿¡ä»»":3355,"åĢĳ":3356,"é£ŁæĿĲ":3357,"è¡¨éĿ¢":3358,"è§Ī":3359,"å±ķçİ°":3360,"æķĻåŃ¦":3361,"åĲĦä¸ª":3362,"Ġif":3363,"çĶ³":3364,"çļĦçŁ¥":3365,"åıĸåĨ³":3366,"å°¤åħ¶":3367,"åıĸåĨ³äºİ":3368,"åı¯ä»¥æıĲé«ĺ":3369,"éŀĭ":3370,"å°½ç®¡":3371,"çĽ´åĪ°":3372,"åŁ¹åħ»":3373,"å¤įæĿĤçļĦ":3374,"æĭĮ":3375,"å¿Ļ":3376,"æĪĳéľĢè¦ģ":3377,"åŁºåĽł":3378,"ry":3379,"æģĲ":3380,"å¤§åŃ¦":3381,"ä»·åĢ¼è§Ĥ":3382,"ite":3383,"è¯ŃéŁ³è¯ĨåĪ«":3384,"æķ°æį®éĽĨ":3385,"ft":3386,"åįıä½ľ":3387,"ass":3388,"æ³ķè§Ħ":3389,"ç»¼ä¸Ĭ":3390,"ä¹³":3391,"åĪĨä¸º":3392,"æĢ§åĪ«":3393,"è¶³å¤ŁçļĦ":3394,"å·¥ä¸ļ":3395,"ç§¯æŀģçļĦ":3396,"Ġreturn":3397,"å®ŀæĸ½":3398,"æľ¬ä¹¦":3399,"Ġcl":3400,"åľ¨æľªæĿ¥":3401,"å¯¹æĸ¹":3402,"è´¦":3403,"åıĳå¸ĥ":3404,"ï¼ĮâĢľ":3405,"çļĦç½":3406,"çĽ¸åºĶçļĦ":3407,"Ġcont":3408,"å¼ĢæĶ¾":3409,"æŀĦå»º":3410,"æĪĳå¾Ī":3411,"è½®":3412,"ä¸ĸçºª":3413,"çī¹æ®Ĭ":3414,"åŃ¦çĶŁçļĦ":3415,"è§Ĵåº¦":3416,"å®£ä¼ł":3417,"è½»æĿ¾":3418,"ä»¿":3419,"Ġi":3420,"çĽ®çļĦ":3421,"å¥¹çļĦ":3422,"ĠStep":3423,"è°ģ":3424,"Ġwhich":3425,"è®¤è¯Ĩ":3426,"åĮºåĿĹ":3427,"è²":3428,"ç¤ºä¾ĭ":3429,"æ¶īåıĬåĪ°":3430,"Ġdet":3431,"ä¸Ģåıª":3432,"ç¾İä¸½çļĦ":3433,"æģ¶":3434,"du":3435,"çĻ»":3436,"æ¬£":3437,"è®¤çŁ¥":3438,"èĽĭç³ķ":3439,"ia":3440,"åĳ³éģĵ":3441,"äº§åĵģçļĦ":3442,"ä¾Ŀèµĸ":3443,"è°ĥæŁ¥":3444,"port":3445,"éº¦":3446,"é«ĺåħ´":3447,"å¹¶æıĲä¾Ľ":3448,"è´¹çĶ¨":3449,"æİ¨çĲĨ":3450,"ä½¿åħ¶":3451,"æŃ»":3452,"oll":3453,"åĴĮç¤¾ä¼ļ":3454,"æ¸¸æ³³":3455,"çļĦçĭ":3456,"å¼ĥ":3457,"ç»¼åĲĪ":3458,"æıĲä¾ĽçļĦ":3459,"é¢Ĩå¯¼":3460,"æĶ»åĩ»":3461,"åı¯ä»¥çĶ¨äºİ":3462,"æ¥¼":3463,"åĳ¨åĽ´":3464,"å¹ħ":3465,"Ġpr":3466,"ark":3467,"çļĦå¤©æ°Ķ":3468,"éĢıæĺİ":3469,"ä¼ĺåħĪ":3470,"çŃīäºİ":3471,"æĢ»æĺ¯":3472,"é¡ºåºı":3473,"ç»¼ä¸ĬæīĢè¿°":3474,"ell":3475,"é¸¡èĽĭ":3476,"èĤª":3477,"Ġnum":3478,"èĦĤèĤª":3479,"Bob":3480,"çĶļ":3481,"cess":3482,"å®¶äºº":3483,"è¯įæ±ĩ":3484,"å¤ıåŃ£":3485,"æĻĤ":3486,"åĿĩåĮĢ":3487,"æľĹ":3488,"èĥģ":3489,"èĥŀ":3490,"æĸ°é²ľ":3491,"è¯»èĢħ":3492,"ä¸ĭçļĦ":3493,"æıĲåĪ°":3494,"cul":3495,"Ġso":3496,"13":3497,"åĩī":3498,"å°±ä¸ļ":3499,"é¢ĨåŁŁçļĦ":3500,"å¸®åĬ©ä½ł":3501,"èĩ³å°ĳ":3502,"å·§åħĭ":3503,"åĩºäºĨ":3504,"çļĦä¸»é¢ĺ":3505,"æĭĽ":3506,"çīĽå¥¶":3507,"ava":3508,"ä¹ı":3509,"èĩªåĬ¨é©¾é©¶":3510,"æĶ¾åħ¥":3511,"äº¤äºĴ":3512,"åĨ¬":3513,"å¨ģèĥģ":3514,"çµ":3515,"å¡Ķ":3516,"æĭį":3517,"XX":3518,"å¹³æĸ¹":3519,"æŁ¥çľĭ":3520,"box":3521,"æ¹ĸ":3522,"å¯¹çİ¯å¢ĥ":3523,"ç«¥":3524,"çĶŁæ´»æĸ¹å¼ı":3525,"å¤ļçļĦ":3526,"éĺ²æŃ¢":3527,"åĽłä¸ºå®ĥ":3528,"å¨±ä¹Ĳ":3529,"ä¸Ĭè¿°":3530,"æİ¥ä¸ĭæĿ¥":3531,"è¾ħåĬ©":3532,"æĥł":3533,"Ġ100":3534,"å¦Ĥä½ķåľ¨":3535,"unction":3536,"ä¼łæĴŃ":3537,"æµªè´¹":3538,"å°º":3539,"çļĦçĥŃ":3540,"çļĦçİ¯å¢ĥ":3541,"éĹŃ":3542,"æī¹":3543,"ong":3544,"çĤº":3545,"çļĦä½¿çĶ¨":3546,"def":3547,"æĦŁåħ´è¶£":3548,"¹é¥":3549,"Ġall":3550,"å¯Ĩçłģ":3551,"å¦Ī":3552,"¹é¥ª":3553,"åĸĿ":3554,"æī®":3555,"æĻºèĥ½åĮĸ":3556,"ä¸Ģç»Ħ":3557,"çļĦç¬¬":3558,"ition":3559,"ound":3560,"ä¾Ĩ":3561,"åĪº":3562,"å½¢è±¡":3563,"åĲ¬è¯´":3564,"äººçĶŁ":3565,"ata":3566,"åĮºåĿĹéĵ¾":3567,"ĊĠ":3568,"å®īè£ħ":3569,"æĢģåº¦":3570,"orld":3571,"çĶļèĩ³":3572,"åĵ²åŃ¦":3573,"åİŁçĲĨ":3574,"æĦŁåıĹåĪ°":3575,"èī²å½©":3576,"çī©ä½ĵ":3577,"åľ¨ä¸Ģèµ·":3578,"çĶŁç´ł":3579,"Ġapp":3580,"ps":3581,"äººæ°ĳ":3582,"24":3583,"æıĲä¾ĽæĽ´":3584,"çķª":3585,"æ£Ĵ":3586,"åĪĨå¸ĥ":3587,").":3588,"Ġneed":3589,"Ġwhe":3590,"list":3591,"éĵ¶è¡Į":3592,"åıªæĺ¯":3593,"Ġä½¿çĶ¨":3594,"æ¢¦æĥ³":3595,"äºĨä¸ĢäºĽ":3596,"å¤§å®¶":3597,"çĶŁæĪĲä¸Ģæ®µ":3598,"å®Įæķ´":3599,"ĊĠĠĠĠĠĠĠ":3600,"å°ģ":3601,"åĪĽå»ºä¸Ģä¸ª":3602,"In":3603,"åİļ":3604,"now":3605,"æĦıè§ģ":3606,"åĴĮæ²»çĸĹ":3607,"åıĺæļĸ":3608,"è½¦è¾Ĩ":3609,"Ġac":3610,"ake":3611,"ä¸Ĭä¸ĭ":3612,"éĢĢ":3613,"å®«":3614,"æķ°çļĦ":3615,"èĻ«":3616,"Ġanswer":3617,"ĠAI":3618,"ä¸Ģæł·":3619,"ç»ıè¿ĩ":3620,"è¶ħè¿ĩ":3621,"é£ŀè¡Į":3622,"èĤĮèĤī":3623,"åĶ±":3624,"åĪĨæŀĲåĴĮ":3625,"ish":3626,"ç¾İå¥½çļĦ":3627,"çŃīæĸ¹å¼ı":3628,"çĤİ":3629,"çĨĬ":3630,"åĴĮåıĳå±ķ":3631,"ç»Ĩèĥŀ":3632,"æĢĢ":3633,"æ°Ķæ¸©":3634,"æī°":3635,"çıį":3636,"ĠIn":3637,"äºĪ":3638,"åĨľä¸ļ":3639,"çļĦç²":3640,"è´¥":3641,"Ġeach":3642,"17":3643,"Alice":3644,"åĨ²çªģ":3645,"çļĦçŁ¥è¯Ĩ":3646,"çĿ£":3647,"åľ¨ä¸Ģä¸ª":3648,"ä»Ģä¹Īæĺ¯":3649,"è£ħé¥°":3650,"çļĦçĪ±":3651,"ick":3652,"çļĦç©":3653,"çķħ":3654,"æĹ¶ä»£":3655,"æ°ĽåĽ´":3656,"ä¿Ŀéļľ":3657,"è®¾æĸ½":3658,"éĥ½ä¼ļ":3659,"æģĴ":3660,"è§Ħå¾ĭ":3661,"çļĦåĨħå®¹":3662,"Ġhel":3663,"å½¼":3664,"å»ºè®¾":3665,"èĩªèº«":3666,"éĥ¨çĶµå½±":3667,"çļĦç³":3668,"ations":3669,"åı¯èĥ½å¯¼èĩ´":3670,"è¯·åĳĬè¯īæĪĳ":3671,"åĽŀæĶ¶":3672,"Ġwill":3673,"Ġwas":3674,"å½¢çĬ¶":3675,"\\]":3676,"å·¨å¤§çļĦ":3677,"boxed":3678,"éĻĦ":3679,"éĥ¨éĹ¨":3680,"å¤§æ°Ķ":3681,"å¹ķ":3682,"æĹ¨åľ¨":3683,"æĿĳ":3684,"éĽĨä¸Ń":3685,"ates":3686,"åĨįçĶŁ":3687,"æĬ±":3688,"We":3689,"æģ¢":3690,"ä¼ĺç§Ģ":3691,"Ð°":3692,"æİĪ":3693,"æĪĲåĪĨ":3694,"é»ĺ":3695,"åĴĮå®īåħ¨":3696,"ç½ª":3697,"æł¼å¼ı":3698,"å°½åı¯èĥ½":3699,"å°¾":3700,"çĭ¬ç«ĭ":3701,"we":3702,"çģµæ´»":3703,"è¿¹":3704,"åľ°çĤ¹":3705,"åıĺå¾ĹæĽ´åĬł":3706,"åĴĮåºĶçĶ¨":3707,"æ´¾":3708,"æ°Ķä½ĵ":3709,"åįł":3710,"çļĦçĹ":3711,"ily":3712,"çļĦå¥½":3713,"æĸĹ":3714,"è§Ħæ¨¡":3715,"pon":3716,"80":3717,"æŃ£å¸¸":3718,"å·§åħĭåĬĽ":3719,"),":3720,"åĴĮåĪĨæŀĲ":3721,"é»ĳæ´ŀ":3722,"æķ°ç»Ħ":3723,"çļĦç½ĳ":3724,"ç±»åĪ«":3725,"æĽ´å¥½åľ°äºĨè§£":3726,"å¡«":3727,"æĬ¥éģĵ":3728,"æĿ¥å®ŀçİ°":3729,"der":3730,"ä¹Łæľī":3731,"è´Łè´£":3732,"æĿ°":3733,"å°Ĩä»¥ä¸ĭ":3734,"))":3735,"èĩªè¡Į":3736,"åħ¬éĩĮ":3737,"çļĦåģ¥åº·":3738,"åĴĮè°":3739,"èªī":3740,"Ġmore":3741,"åħ·å¤ĩ":3742,"åĴĮæĶ¯æĮģ":3743,"è¿Ľå±ķ":3744,"åĬ¨åĬĽ":3745,"åľ¨åĮ»çĸĹé¢ĨåŁŁ":3746,"åĵģè´¨":3747,"éķľ":3748,"éĻĪ":3749,"èĩ³åħ³":3750,"äººå·¥æĻºèĥ½åľ¨":3751,"ç¬¬ä¸Ģ":3752,"è¿Ļæł·çļĦ":3753,"é¡¿":3754,"Ġfind":3755,"åĩĨç¡®åľ°":3756,"åıĤèĢĥ":3757,"åħ±äº«":3758,"çĵ¶":3759,"æīĵå¼Ģ":3760,"Ġ{":3761,"æĮĩçļĦæĺ¯":3762,"æ¯ıä¸ªäººéĥ½":3763,"è§Ħå®ļ":3764,"æģ¢å¤į":3765,"åº¦çļĦ":3766,"çľŁçļĦ":3767,"ise":3768,"ç¬¬ä¸ī":3769,"æīĵåį°":3770,"èĩªä¿¡":3771,"åħ¬å¹³":3772,"èľľ":3773,"æī®æ¼Ķ":3774,"æĪ·å¤ĸ":3775,"æ³¨æĦıåĬĽ":3776,"åīįæĻ¯":3777,"çĶ²":3778,"æµ·æ»©":3779,"ç®Ģæ´ģ":3780,"ç³»ç»ŁçļĦ":3781,"çļĦçĶµå½±":3782,"æĺ¯ä¸ŃåĽ½":3783,"éģµå¾ª":3784,"åĲ«ä¹ī":3785,"èĦ±":3786,"éĺ¶æ®µ":3787,"éĥģ":3788,"åĴĮæĮĳæĪĺ":3789,"ãĢģâĢľ":3790,"çİī":3791,"äºĭå®ŀ":3792,"æĪ¿éĹ´":3793,"çļĦçŁ":3794,"ä¼ĺçĤ¹":3795,"åģ¶":3796,"æĺ¯å¤ļå°ĳ":3797,"å¼±":3798,"åĪĨåŃĲ":3799,"çļĦç¤¾ä¼ļ":3800,"æķ°æį®åĴĮ":3801,"é¡¶":3802,"åı¯ä»¥ä¸º":3803,"Ð¾":3804,"çķªèĮĦ":3805,"cript":3806,"æľµ":3807,"ä¸Ģå®¶":3808,"è¯·ä½ł":3809,"ĠÃĹ":3810,"çļĦä¸Ģä¸ª":3811,"ä¿ĿéĻ©":3812,"æľĢæĸ°":3813,"ces":3814,"å¾ĹåĪ°äºĨ":3815,"æľīçļĦ":3816,"ĠV":3817,"è¡Ĺ":3818,"æĪĸåħ¶ä»ĸ":3819,"çľŁå®ŀ":3820,"å¤ªéĺ³èĥ½":3821,"ood":3822,"çī©çļĦ":3823,"çĪ±å¥½":3824,"å¯¹è±¡":3825,"ä¸Ĭåįĩ":3826,"numb":3827,"æĪĲå°±":3828,"ä¾ĽåºĶ":3829,"ç»´çĶŁç´ł":3830,"åı¦ä¸Ģä¸ª":3831,"çº¢èī²":3832,"Ġass":3833,"alcul":3834,"æ¨¡åŀĭçļĦ":3835,"æİī":3836,"ç¾İçļĦ":3837,"æĹ¶éĹ´çļĦ":3838,"çľĭèµ·æĿ¥":3839,"åĭķ":3840,"ä¾¿åĪ©":3841,"ç»ĵæĿŁ":3842,"å¼łä¸ī":3843,"è®¾å®ļ":3844,"Ġâ":3845,"ä¸Ģæ¬¾":3846,"æĪĳä»¬å°Ĩ":3847,"èº«ä»½":3848,"ç§įç±»":3849,"ç¼ºä¹ı":3850,"Ġprovide":3851,"èļ":3852,"è¡¨æ¼Ķ":3853,"åģıå¥½":3854,"èµŀ":3855,"åĪ©çĽĬ":3856,"ign":3857,"éľĢæ±ĤåĴĮ":3858,"æĪĳåľ¨":3859,"ç»Łè®¡":3860,"ode":3861,"åħ¬ä¼Ĺ":3862,"é¥®æĸĻ":3863,"æıĲéĨĴ":3864,"å°į":3865,"éªĳ":3866,"ove":3867,"éļ¾ä»¥":3868,"æĲħ":3869,"æ¡Ĩæŀ¶":3870,"èĭı":3871,"èĪ¹":3872,"èĩªä¸»":3873,"ther":3874,"è½¬åĮĸ":3875,"éĿ¢åĮħ":3876,"å°½éĩı":3877,"ä½¿çĶ¨çļĦ":3878,"âĢĶâĢĶ":3879,"è®©ä½ł":3880,"ify":3881,"å¹¶å°Ĩ":3882,"æľĢéĩįè¦ģçļĦ":3883,"so":3884,"ä¸ªæĢ§åĮĸçļĦ":3885,"ep":3886,"Ġcur":3887,"çŁŃè¯Ń":3888,"âĢĿãĢģâĢľ":3889,"æ·±è¿ľ":3890,"å¤©ç©º":3891,"Ġnew":3892,"rt":3893,"è¯·æıĲä¾Ľ":3894,"å®Ĺ":3895,"Ġsol":3896,"ail":3897,"éľĩ":3898,"Ġhow":3899,"èĥ½åĬĽåĴĮ":3900,"åĳĪçİ°":3901,"çĽĳæİ§":3902,"éĵħ":3903,"éĿŀå¸¸éĩįè¦ģ":3904,"æľŁéĹ´":3905,"åħ¨çĲĥåıĺæļĸ":3906,"èĥ½åĲ¦":3907,"ng":3908,"çĴ":3909,"èĢ³":3910,"è¯Ńåı¥":3911,"äº§çĶŁäºĨ":3912,"åĨħå¿ĥ":3913,"cre":3914,"éª¨":3915,"åħ¬æŃ£":3916,"çī¹èī²":3917,"èĴľ":3918,"æĬ«":3919,"à¦":3920,"èĭ¦":3921,"åħ±æľī":3922,"åı¯èĥ½ä¼ļå¯¼èĩ´":3923,"éĽħ":3924,"çĹĩçĬ¶":3925,"èĬĤå¥ı":3926,"æ¶ĪèĢĹ":3927,"éģµå®Ī":3928,"å¢Ļ":3929,"ä¸ľè¥¿":3930,"æķ¬":3931,"éľĢè¦ģèĢĥèĻĳ":3932,"åĮ¹":3933,"æĸĩæ¡£":3934,"Ġsentence":3935,"åĲįä¸º":3936,"çļĦç©º":3937,"æł¹æį®ç»Ļå®ļçļĦ":3938,"å¯¿":3939,"åĩºçļĦ":3940,"æĶ¯æĮģåĴĮ":3941,"ä¸ªèĭ¹æŀľ":3942,"å«":3943,"æ¡Į":3944,"ä¸įæĸŃåıĳå±ķ":3945,"æĺĵäºİ":3946,"æĲħæĭĮ":3947,"åįķä½į":3948,"çļĦåİĨåı²":3949,"ç§ĳå¹»":3950,"hes":3951,"èµĦéĩĳ":3952,"Ġtime":3953,"æĽ¿ä»£":3954,"å¾Ģå¾Ģ":3955,"æĸĩæľ¬ä¸Ń":3956,"łéģĵ":3957,"æĥ³è±¡":3958,"æ¬£èµı":3959,"ents":3960,"æĽ´å®¹æĺĵ":3961,"åı¯ä»¥å°Ĩ":3962,"çļĦæĥħåĨµ":3963,"åİĺ":3964,"ä¸Ĭä¸ĭæĸĩ":3965,"ãĢģãĢĬ":3966,"å®¤åĨħ":3967,"nswer":3968,"çļĦçĽ®æłĩ":3969,"çļĦæĹ¶åĢĻ":3970,"ome":3971,"è¯ģæĺİ":3972,"å®ľ":3973,"è´Ŀ":3974,"åĢŁ":3975,"çªĹ":3976,"Ġbo":3977,"åĩĨç¡®æĢ§":3978,"æĪĳæĺ¯":3979,"ra":3980,"ci":3981,"æ±Ł":3982,"çļĦç»ĵæŀľ":3983,"æĮĩæłĩ":3984,"çļĦæĢ»":3985,"åĮ»çĸĹä¿Ŀåģ¥":3986,"çĥŁ":3987,"ĠåĴĮ":3988,"ĠâĢľ":3989,"åį«çĶŁ":3990,"éº»":3991,"çĽĳç®¡":3992,"æ¯Ķä¾ĭ":3993,"ä¸Ģä¸ªäºº":3994,"âĢĻ":3995,"æĺ¯ä¸Ģä½į":3996,"æıĴ":3997,"èĤ´":3998,"åħģ":3999,"ays":4000,"åºıåĪĹ":4001,"çļĦè¿ĩç¨ĭ":4002,"èħ¿":4003,"å·¦åı³":4004,"ous":4005,"åŃ¤çĭ¬":4006,"çĽĳçĿ£":4007,"çļĦç¼ĸ":4008,"ä¸Ģå®ļçļĦ":4009,"èº«å¿ĥ":4010,"èĢĮæĺ¯":4011,"ç¤¾ä¼ļçļĦ":4012,"è§ĦèĮĥ":4013,"åı¯ä»¥è¢«":4014,"å¯¸":4015,"irst":4016,"æ¶µ":4017,"éŃĶæ³ķ":4018,"æİªæĸ½æĿ¥":4019,"å¦Ļ":4020,"æķ°ä¸º":4021,"æľĥ":4022,"å¼¹":4023,"åħŃ":4024,"å¼Ĥå¸¸":4025,"åı¯ä»¥æıĲä¾Ľ":4026,"åĴĮè°Ĳ":4027,"çłĶåıĳ":4028,"åħ¶ä¸ŃçļĦ":4029,"çļĦåħ·ä½ĵ":4030,"Ġhelp":4031,"ens":4032,"éļĶ":4033,"çļĦåŁºç¡Ģ":4034,"åı¯åĨįçĶŁ":4035,"ener":4036,"è¯¦ç»ĨçļĦ":4037,"Ġfunction":4038,"éĵħç¬Ķ":4039,"ä¿ĿæĬ¤çİ¯å¢ĥ":4040,"æĬĢæľ¯åĴĮ":4041,"é¡¾å®¢":4042,"ç§įæĹı":4043,"è¦Ĩ":4044,"åĬłå¯Ĩ":4045,"ä¸İåħ¶ä»ĸ":4046,"çĥ¹é¥ª":4047,"æķ´ä½ĵ":4048,"å¸ĮæľĽè¿ĻäºĽ":4049,"Ġsum":4050,"åį³ä½¿":4051,"è¿Ļé¦ĸ":4052,"ç¼ĸåĨĻä¸Ģä¸ª":4053,"ç¾İå¥½":4054,"çĲĨè§£åĴĮ":4055,"æĤ¦":4056,"åĲ«æľī":4057,"è´ŁéĿ¢å½±åĵį":4058,"500":4059,"ä¸įçŁ¥éģĵ":4060,"æīĭæ®µ":4061,"Ġ30":4062,"çļĦç«":4063,"çıł":4064,"è¿Ŀ":4065,"éĩįè§Ĩ":4066,"èģĺ":4067,"èħĲ":4068,"æľºåĻ¨åŃ¦ä¹łç®Ĺæ³ķ":4069,"å¤ļæł·æĢ§":4070,"wo":4071,"çļĦç¥":4072,"ĠThis":4073,"æįķ":4074,"çİĽä¸½":4075,"å¥ĭ":4076,"éĢļå¸¸ä¼ļ":4077,"æĻ®åıĬ":4078,"é»İ":4079,"åħģè®¸":4080,"åĴĮä¸į":4081,"à¥":4082,"åĴĮæľįåĬ¡":4083,"å½¢çļĦ":4084,"çºł":4085,"æĶ¿æ²»":4086,"åı¯ä»¥éĢīæĭ©":4087,"éĺµ":4088,"ollow":4089,"çĬ¬":4090,"äººä»¬çļĦ":4091,"ph":4092,"åĵ¥":4093,"Ġbet":4094,"æ¾":4095,"AP":4096,"Ðµ":4097,"èº«ä½ĵåģ¥åº·":4098,"åºĨ":4099,"çļ®èĤ¤":4100,"Ġbut":4101,"æľŁå¾ħ":4102,"å±ı":4103,"å¯¹æīĭ":4104,"ä¸ĵå®¶":4105,"èĴ¸":4106,"åĲįè¯į":4107,"åľ¨å®¶":4108,"æµ®":4109,"é£ŁçĶ¨":4110,"ä¿¡åı·":4111,"è¿Ļä¸¤ä¸ª":4112,"åĴĮç®¡çĲĨ":4113,"æİĴåĪĹ":4114,"çł´åĿı":4115,"çĹħæ¯Ĵ":4116,"Ġinto":4117,"çĶµæ±ł":4118,"è¿ĺèĥ½":4119,"çĽ®çļĦåľ°":4120,"Ġ<":4121,"å£¤":4122,"ä¼łéĢĴ":4123,"æīĢæľīçļĦ":4124,"les":4125,"çļĦçĿ":4126,"å°ıçļĦ":4127,"çº½":4128,"çĪ¶":4129,"æĺ¯åĲ¦æľī":4130,"æī¾åĩº":4131,"å§¿":4132,"ç´§æĢ¥":4133,"ç»ıçĲĨ":4134,"åĿĢ":4135,"oug":4136,"ä»°":4137,"ä¾µ":4138,"åį±éĻ©":4139,"Ġspec":4140,"æķĻå¸Ī":4141,"æķ°æį®åºĵ":4142,"è¯º":4143,"ç¶":4144,"åĨħçļĦ":4145,"red":4146,"åįĸ":4147,"Ġpos":4148,"99":4149,"èĭĹ":4150,"NA":4151,"Ġfollow":4152,"Ġadd":4153,"æķ¢":4154,"åģ¥åº·é¥®é£Ł":4155,"ä¸ĬéĿ¢":4156,"çľĭçľĭ":4157,"åİŁåĪĻ":4158,"å±ĭ":4159,"è®ºæĸĩ":4160,"ru":4161,"èĵĿèī²":4162,"è´´":4163,"èĦı":4164,"è´¨éĩıåĴĮ":4165,"éĹª":4166,"ãĢĭãĢģãĢĬ":4167,"éķĩ":4168,"è¿Ľè¡ĮåĪĨç±»":4169,"ä¸ŃçļĦåºĶçĶ¨":4170,":**":4171,"åı¯ä»¥å¸®åĬ©æĪĳä»¬":4172,"åħħè¶³":4173,"åĬ¨æĢģ":4174,"ä¸»äºº":4175,"ç¢į":4176,"ç¿Ĵ":4177,"ä»Ķ":4178,"çļĦéŁ³ä¹Ĳ":4179,"è¹Ī":4180,"Ġform":4181,"åľŁå£¤":4182,"è¿ħ":4183,"å½¼æŃ¤":4184,"åĸľå¥½":4185,"ram":4186,"åĿ¦":4187,"ä»ª":4188,"çļĦåŁºæľ¬":4189,"ä¸Ģå¤©":4190,"æĺŁçĲĥ":4191,"Ġ25":4192,"æīĺ":4193,"ï¼īãĢģ":4194,"æĺ¾èĳĹ":4195,"æĻļä¸Ĭ":4196,"æ½®":4197,"lease":4198,"ĠK":4199,"æ°´åĪĨ":4200,"çĶµè¯Ŀ":4201,"æ·¡":4202,"æľīè®¸å¤ļ":4203,"è¯ģæį®":4204,"çļĦéĢīæĭ©":4205,"ç»´æĮģ":4206,"ract":4207,"è§£çŃĶ":4208,"æľĢå¤§çļĦ":4209,"ç´¯":4210,"èĪŀè¹Ī":4211,"çĸ²":4212,"ç¯®":4213,"çļĦç²¾":4214,"åħ¨éĿ¢":4215,"å¤§èĩªçĦ¶":4216,"åĨĴéĻ©":4217,"çļĦæķ°éĩı":4218,"ä¼łç»ŁçļĦ":4219,"æıĲç¤º":4220,"èİĵ":4221,"ç¿°":4222,"çļĦä¸Ģéĥ¨åĪĨ":4223,"å®ŀä½ĵ":4224,"ff":4225,"çŃīéĹ®é¢ĺ":4226,"Ġla":4227,"45":4228,"æĢİä¹Īæł·":4229,"åĮĸåĴĮ":4230,"åħĭæľį":4231,"çŃĶæ¡Īæĺ¯":4232,"éĩĮçļĦ":4233,"sq":4234,"éĹ²":4235,"ä»İèĢĮæıĲé«ĺ":4236,"åįļçī©":4237,"éĢ²":4238,"æª":4239,"è¡£æľį":4240,"åİ¨":4241,"èĦ¸":4242,"ä¸ĸçķĮä¸ĬæľĢ":4243,"ath":4244,"é½":4245,"å®ģ":4246,"ç»ķ":4247,"åīįå¾Ģ":4248,"ç¢İ":4249,"sum":4250,"ask":4251,"ä¸īè§Ĵ":4252,"ree":4253,"å¿ĥåĴĮ":4254,"çļĦçĿ¡":4255,"ç¡®è®¤":4256,"åĩĨç¡®çļĦ":4257,"æĤ¨å¥½":4258,"ç»ĵè®º":4259,"å¹´è½»çļĦ":4260,"çĵľ":4261,"æĬĢèĥ½åĴĮ":4262,"å¿ł":4263,"èį£":4264,"my":4265,"Ġlist":4266,"èī¯å¥½":4267,"åĦ¿ç«¥":4268,"èĭ¥":4269,"èıľèĤ´":4270,"å¤±åİ»":4271,"ual":4272,"èİī":4273,"çŃīå¾ħ":4274,"æľīä¸ĢäºĽ":4275,"Ġcomp":4276,"ä»¥ä¸ĭåĩłä¸ªæĸ¹éĿ¢":4277,"å¿ĥæĥħ":4278,"ä¹ŁéľĢè¦ģ":4279,"ç²Ĵ":4280,"ä¹¡":4281,"æīĢåľ¨":4282,"è°ĥåĳ³":4283,"æľĢå¥½":4284,"åİŁå§ĭ":4285,"éľĢè¦ģæ³¨æĦıçļĦæĺ¯":4286,"èĩªè¡Įè½¦":4287,"äºĶä¸ª":4288,"Java":4289,"åĢį":4290,"result":4291,"ä¹ĭå¤ĸ":4292,"æ°ı":4293,"ä½ĵçİ°":4294,"çļĦè¡Įä¸º":4295,"è¿ĻæĦıåĳ³çĿĢ":4296,"à°":4297,"åľ¨æŁĲäºĽ":4298,"åıĸä»£":4299,"é¸£":4300,"Ġtrans":4301,"åīª":4302,"åĽŀçŃĶéĹ®é¢ĺ":4303,"åĬłéĢŁ":4304,"æľĢæĸ°çļĦ":4305,"çļĦèĥ½åĬĽ":4306,"åī©ä¸ĭ":4307,"çº¦ç¿°":4308,"Ġout":4309,"æ³°":4310,"Ġam":4311,"åŁºéĩĳ":4312,"çļĦé£Łçī©":4313,"æ¿Ģåıĳ":4314,"è¿Ļéĥ¨çĶµå½±":4315,"åĵªéĩĮ":4316,"çļĦçĿ¡çľł":4317,"å¤§çº¦":4318,"å¤§åŀĭ":4319,"æĽ´å¿«":4320,"åıįæĺł":4321,"ä¸Ĭæµ·":4322,"ov":4323,"å´":4324,"ä»¥ä¸ĭæĺ¯ä¸Ģä¸ª":4325,"å®ĥåı¯ä»¥":4326,"Ġover":4327,"å·¥ç¨ĭå¸Ī":4328,"ä¸ºæĪĳ":4329,"ä¸įæĸŃåľ°":4330,"çĽĽ":4331,"åłĤ":4332,"21":4333,"å·Ŀ":4334,"è¶³çĲĥ":4335,"è±¡å¾ģ":4336,"ew":4337,"æĸĩç«łä¸Ń":4338,"åı¯ä»¥èĢĥèĻĳ":4339,"ç²¾åĩĨ":4340,"æī©å±ķ":4341,"åıĬåħ¶":4342,"åĴĮå»ºè®®":4343,"éĺ»":4344,"çİ¯å¢ĥæ±¡æŁĵ":4345,"ä¹īè¯į":4346,"æ¸ħåįķ":4347,"Ġgiven":4348,"ä¾§":4349,"Â°":4350,"ä»¥ä¸ĭåĩł":4351,"Ġpo":4352,"åħįçĸ«":4353,"æ¸łéģĵ":4354,"å£®":4355,"è¯įè¯Ń":4356,"å¿ĥæĢģ":4357,"å¿½":4358,"åħīçº¿":4359,"erse":4360,"åľ£":4361,"æľªçŁ¥":4362,"åı¯åĨįçĶŁèĥ½æºĲ":4363,"çĤ¸":4364,"çĻĮ":4365,"Ġresult":4366,"æĪĲæŀľ":4367,"éĴ¢":4368,"Ġvalue":4369,"åĢº":4370,"ä¹ĭåĲİ":4371,"ä¸ĵæ³¨äºİ":4372,"æĸ¼":4373,"åĲĪåĲĮ":4374,"æłĩå¿Ĺ":4375,"å®¶åħ·":4376,"èĬĤçº¦":4377,"åĲĮäºĭ":4378,"Ġno":4379,"æĭĵ":4380,"å¯¹äººç±»":4381,"ning":4382,"èŀįåĲĪ":4383,"ä¸ĭéĻį":4384,"æľĢå¥½çļĦ":4385,"éĽ·":4386,"Ġcurrent":4387,"çļĦåı¥åŃĲ":4388,"çģ¾å®³":4389,"æīĭæľ¯":4390,"å®īåħ¨æĢ§":4391,"æ¸©å®¤":4392,"çĶµåŃĲéĤ®ä»¶":4393,"çļĦäºĭæĥħ":4394,"ä¸ºä½ł":4395,"æ»¤":4396,"ä»ĸä»¬çļĦå¯¹è¯ĿåĨħå®¹":4397,"å¼ºå¤§çļĦ":4398,"åħħæ»¡äºĨ":4399,"æĦŁåĴĮ":4400,"åĪ°è¾¾":4401,"å»ºè®®æĤ¨":4402,"äººå£«":4403,"æĢ§è´¨":4404,"çĿĽ":4405,"å¯Ĵ":4406,"éĿŀå¸¸æĦŁè°¢":4407,"åĪĩæĪĲ":4408,"ãģ®":4409,"çĶŁæĪĲä¸Ģé¦ĸ":4410,"å·´é»İ":4411,"çĶ³è¯·":4412,"What":4413,"Ġinte":4414,"orre":4415,"ä¼ĺæĥł":4416,"å¤ªéĺ³ç³»":4417,"çīĪæľ¬":4418,"åĪĽä¸ļ":4419,"äºĨè®¸å¤ļ":4420,"æķ£æŃ¥":4421,"èķī":4422,"æł¹æį®ä»¥ä¸ĭ":4423,"æŃĮè¯į":4424,"åıĺæĪĲ":4425,"æ½ľåĬĽ":4426,"æĬ«èĲ¨":4427,"cur":4428,"å¼ºçĥĪ":4429,"çº½çº¦":4430,"æĺ¯å¦Ĥä½ķ":4431,"æĺ¯ä¸ĢåĲį":4432,"çļĦåıĺåĮĸ":4433,"ç´§å¼ł":4434,"Ġro":4435,"ä¸įè¶³":4436,"ords":4437,"æľĢé«ĺ":4438,"éĩįéĩı":4439,"æŁ¥æī¾":4440,"çļĦåİŁåĽł":4441,"ç§Ł":4442,"ĠSt":4443,"æ¿ĢåĬ±":4444,"ink":4445,"ç¬¬ä¸Ģä¸ª":4446,"____":4447,"æ©ĻåŃĲ":4448,"çī©ç§į":4449,"èıĮ":4450,"ble":4451,"å®¢æľį":4452,"éł":4453,"yp":4454,"Ġpre":4455,"ä¸¥æł¼":4456,"èĢĥè¯ķ":4457,"æłĩçŃ¾":4458,"ä¸ĵä¸ļçļĦ":4459,"åı¯ä»¥æĺ¯":4460,"å½¢å®¹":4461,"ample":4462,"åĭĩæ°Ķ":4463,"Ġmany":4464,"Ch":4465,"æķ¸":4466,"è§Ĩä¸º":4467,"é¼ł":4468,"è¿ĲçĶ¨":4469,"ä½ĵéĩį":4470,"äºĭçī©":4471,"æĪĳæĹłæ³ķ":4472,"get":4473,"Ġup":4474,"é¦Ļèķī":4475,"äº¿":4476,"ating":4477,"ä¸Ģç³»åĪĹ":4478,"åĶ¯":4479,"numbers":4480,"éĩįçĤ¹":4481,"ä¸¤ç§į":4482,"å½ĵåľ°çļĦ":4483,"é¢ĨåŁŁä¸Ń":4484,"åĶĲ":4485,"çº¤":4486,"è·Łè¸ª":4487,"åģıè§ģ":4488,"æĪĳä¹Ł":4489,"éħĴåºĹ":4490,"éģĩåĪ°äºĨ":4491,"å¿ĥçĲĨåģ¥åº·":4492,"Ġ>":4493,"é»Ħèī²":4494,"ä¸ŃæıĲåıĸåĩº":4495,"æ³ķåĽ½":4496,"andom":4497,"èĳ¡":4498,"åįļçī©é¦Ĩ":4499,"è¿ĻæľīåĬ©äºİ":4500,"åĵģç§į":4501,"æµªæ¼«":4502,"åľ°çĲĥçļĦ":4503,"åĨł":4504,"è®¤çľŁ":4505,"ä¿®å¤į":4506,"formation":4507,"{\"":4508,"23":4509,"å½±åĥı":4510,"Ġem":4511,"ater":4512,"å¾Īæľī":4513,"åĮ¹éħį":4514,"ä½łè§īå¾Ĺ":4515,"()`":4516,"æĸĩæĺİ":4517,"èĲĦ":4518,"åºĶè¯¥æĺ¯":4519,"éĩĬæĶ¾":4520,"Ġà¤":4521,"éķ¿çļĦ":4522,"åįģåĪĨ":4523,"çī¹æĢ§":4524,"èĳ¡èĲĦ":4525,"æĪĲç»©":4526,"å¤§èĦĳ":4527,"ä»¥æıĲé«ĺ":4528,"çļĦç±":4529,"è·ĳæŃ¥":4530,"Ġsp":4531,"ict":4532,"ä¸ªç³ĸæŀľ":4533,"æ¼ı":4534,"åĴĮæķ°æį®":4535,"ç®ĢçŁŃ":4536,"æĹ¶åħī":4537,"ä¹ĭéĹ´çļĦåħ³ç³»":4538,"å±ħæ°ĳ":4539,"æĳ©":4540,"éĢĤçĶ¨äºİ":4541,"çļĦçŁŃ":4542,"éĿŀå¸¸æľī":4543,"èĤº":4544,"Ġknow":4545,"èıľåĵģ":4546,"Ġmy":4547,"çĪ±çļĦ":4548,"å¦ĤæŃ¤":4549,"**.":4550,"åľ¨è¿Ļ":4551,"ari":4552,"eng":4553,"Ġdes":4554,"lo":4555,"è¢«è®¤ä¸º":4556,"æĺ¨":4557,"ç¾¤ä½ĵ":4558,"low":4559,"å¾Ĺåĩº":4560,"æŃ¦":4561,"èģĮä½į":4562,"ä¸Ģèĩ´":4563,"æ¡¥":4564,"åĪ¸":4565,"ermine":4566,"è¯·æ±Ĥ":4567,"å¼ķåıĳ":4568,"ä½ĵèĤ²":4569,"èľĤ":4570,"çĶŁæ´»çļĦ":4571,"æĦŁçŁ¥":4572,"å¸¦æĿ¥çļĦ":4573,"åĨįæ¬¡":4574,"åħ«":4575,"ä¹ĭå¤Ħ":4576,"å¥³åŃ©":4577,"âĢ¦":4578,"éĿ¢è¯ķ":4579,"æµĭéĩı":4580,"æıĲä¾Ľä¸Ģä¸ª":4581,"æįŁå¤±":4582,"å®ļåĪ¶":4583,"å°ıæĺİæľī":4584,"ä¼Ļ":4585,"èĻļæĭŁçİ°å®ŀ":4586,"ç¬¦åı·":4587,"ĠIf":4588,"Ġæĺ¯":4589,"å¹³åĿĩåĢ¼":4590,"åĴĮæĥħæĦŁ":4591,"èį·":4592,"èĸĦ":4593,"Ø§":4594,"æĺİçĻ½":4595,"ä½łå¯¹":4596,"Ġabout":4597,"çļĦç¤¾äº¤":4598,"ible":4599,"æİĺ":4600,"çī©çĲĨåŃ¦":4601,"æķ°åĪĹ":4602,"ä½Ĩä¸į":4603,"åĪºæ¿Ģ":4604,"'t":4605,"çĺ":4606,"æ¦Ĥçİĩ":4607,"ç§įæ¤į":4608,"çŃīåĽłç´ł":4609,"çİ¯ä¿ĿçļĦ":4610,"ç¼ĸç¨ĭè¯Ńè¨Ģ":4611,"Ã©":4612,"Ġtheir":4613,"åĢĴåħ¥":4614,"æĽ¿æį¢":4615,"æĪĳä»¬çļĦçĶŁæ´»":4616,"äºĭé¡¹":4617,"æĦ¿æĦı":4618,"åĴĮæĬĢæľ¯":4619,"æĵİ":4620,"its":4621,"ä¼¼ä¹İ":4622,"æĪĺäºī":4623,"èĬĤæĹ¥":4624,"ä¸¦":4625,"å¼ķæĵİ":4626,"åĪĨæĪĲ":4627,"äº§ä¸ļ":4628,"åĵªç§į":4629,"å®ļä½į":4630,"Ġone":4631,"æ¯ıæ¬¡":4632,"åĽ¾çīĩ":4633,"orrect":4634,"åĩºè¡Į":4635,"äººéĻħ":4636,"è°ĥèĬĤ":4637,"åħĶ":4638,"éģĵè·¯":4639,"ä¸ģ":4640,"æľ¬æĸĩ":4641,"æĦīå¿«":4642,"åİĺç±³":4643,"çļĦæĸĩæľ¬":4644,"ys":4645,"ä½łåľ¨":4646,"æ¯ıä¸Ģ":4647,"éĢīæĭ©éĢĤåĲĪ":4648,"å¾Īå¤§çļĦ":4649,"è¡ĵ":4650,"åıĳå±ķçļĦ":4651,"çŁ¥åĲį":4652,"åı¦ä¸Ģ":4653,"åŀĥåľ¾åĪĨç±»":4654,"æİ¢éĻ©":4655,"çĹħäºº":4656,"åįıè°ĥ":4657,"é©±":4658,"è¯·ç»ĻæĪĳ":4659,"æģ©":4660,"èģª":4661,"ĠĊ":4662,"Ð¸":4663,"è¢«ç§°ä¸º":4664,"çªģçĦ¶":4665,"ä½łæľĢè¿ĳ":4666,"é«ĺè´¨éĩı":4667,"ÑĤ":4668,"è¯·æ³¨æĦı":4669,"åī¯":4670,"æĪĳåĸľæ¬¢":4671,"ï¼ŁâĢĿ":4672,"å¹«":4673,"åĲī":4674,"çļĦçĬ":4675,"ĠCh":4676,"åı¯èĥ½æĢ§":4677,"æ³Ħ":4678,"å¡ŀ":4679,"èĭ±åĽ½":4680,"å®ĺæĸ¹":4681,"çļĦäº§åĵģ":4682,"è¦ĨçĽĸ":4683,"æĺİæĺ¾":4684,"æķ°æį®è¿Ľè¡Į":4685,"äº¡":4686,"ä½ĵç³»":4687,"å®ĥæĺ¯":4688,"ä½łæľīä»Ģä¹Ī":4689,"ptions":4690,"ä¸įä»ħä»ħ":4691,"æĶ¶çĽĬ":4692,"ï¼ļ\"":4693,"å§ĵ":4694,"ĠHow":4695,"æĺŁæľŁ":4696,"igh":4697,"éļľç¢į":4698,"è¿Ĳç®Ĺ":4699,"ä½¿çĶ¨äºĨ":4700,"ert":4701,"éĻĨ":4702,"èµĭ":4703,"è¿ħéĢŁ":4704,"90":4705,"æĴ°":4706,"æ¼Ķåĳĺ":4707,"è½»è½»":4708,"åł¡":4709,"çļĦä»»åĬ¡":4710,"å¹¶æ²¡æľī":4711,"ather":4712,"ä½ľä¸ºä¸Ģä¸ª":4713,"é¢ĦæĬ¥":4714,"çĪĨ":4715,"æĸĩæ¡Ī":4716,"ç§ĳæĬĢçļĦ":4717,"éĻ¤ä»¥":4718,"æĿĥåĪ©":4719,"æŀĦæĪĲ":4720,"éĢīæĭ©åĲĪéĢĤçļĦ":4721,"æĦŁæŁĵ":4722,"çĽĴ":4723,"åıªèĥ½":4724,"This":4725,"åĴĮçĲĨè§£":4726,"ween":4727,"æ¡Īä¾ĭ":4728,"è¿ª":4729,"çŁ¿":4730,"Ġquest":4731,"å®¶çļĦ":4732,"æŃ£éĿ¢":4733,"çļĦç¼ĸç¨ĭ":4734,"è¢«å¹¿æ³Ľ":4735,"åĲ¸æĶ¶":4736,"çŀ":4737,"æĿĢ":4738,"åıĹæ¬¢è¿İçļĦ":4739,"Ġcomm":4740,"èĦī":4741,"å®īåħ¨åĴĮ":4742,"æĹ¶åĪ»":4743,"éĤ£éĩĮ":4744,"éĻĲäºİ":4745,"ä¼łè¾¾":4746,"ç§Ĵ":4747,"Ġtwo":4748,"çļĦæĥħåĨµä¸ĭ":4749,"ĠÃ·":4750,"æĮĩä»¤":4751,"åıĹä¼Ĺ":4752,"æĽ¾ç»ı":4753,"æĬķåħ¥":4754,"ä»¥ä¸Ĭæĺ¯":4755,"å°±åı¯ä»¥":4756,"çĲ´":4757,"å¹«åĬ©":4758,"ç¼ºçĤ¹":4759,"æ¬§æ´²":4760,"å®ŀéĻħä¸Ĭ":4761,"çļĦä¸ĢäºĽ":4762,"å¸Ŀ":4763,"è¿Ļæ¬¾":4764,"çĶ°":4765,"å¹¿æ³ĽçļĦåºĶçĶ¨":4766,"QL":4767,"æ·ĭ":4768,"é£İæĻ¯":4769,"å¹´æĿ¥":4770,"èµĦäº§":4771,"åĲ¹":4772,"åŃ¸ç¿Ĵ":4773,"æİ¥è§¦":4774,"è¿Ĳè¾ĵ":4775,"ĠPython":4776,"ä¸ĢäºĽåħ³äºİ":4777,"ç´«":4778,"å®ĹæķĻ":4779,"sqrt":4780,"Ġgr":4781,"Ġgo":4782,"å¤ıå¤©çļĦ":4783,"éĺĶ":4784,"çļĦç±»":4785,"ðŁ":4786,"ect":4787,"åĵº":4788,"åħĪçĶŁ":4789,"è¡¨çİ°åĩº":4790,"éĶĢåĶ®é¢Ŀ":4791,"ors":4792,"22":4793,"è·ĥ":4794,"è¿Ļåı¯èĥ½":4795,"çº¤ç»´":4796,"ä¸ŃåĽ½çļĦ":4797,"2021":4798,"æĪ´":4799,"åĬłä¸Ĭ":4800,"Ġpart":4801,"åĲĮæł·":4802,"é¢Ŀå¤ĸ":4803,"ased":4804,"æĸ°åŀĭ":4805,"æľŁæľĽ":4806,"Ġthan":4807,"èģªæĺİ":4808,"åıĳæĺİ":4809,"æĹłéĻĲ":4810,"çļĦä»·æł¼":4811,"èĢĮè¨Ģ":4812,"åĪ©æ¶¦":4813,"ĠHe":4814,"åľºåĲĪ":4815,"åįıè®®":4816,"æĹ©ä¸Ĭ":4817,"äººåı£":4818,"Ġits":4819,"éĥ½èĥ½":4820,"æıĲåĪ°äºĨ":4821,"åĬŀåħ¬":4822,"æĹ§":4823,"æ¸¸å®¢":4824,"æĹ¶çļĦ":4825,"æĭĽèģĺ":4826,"ĠĠĠ":4827,"ä½łæĺ¯":4828,"ä¼¸":4829,"åŁĥ":4830,"è·¯å¾Ħ":4831,"å·¥èīº":4832,"ä¼ļå¯¼èĩ´":4833,"çļĦä¸»":4834,"è´§å¸ģ":4835,"Ġbetween":4836,"è£¤":4837,"æĺİå¤©":4838,"ä¸ºæĤ¨æıĲä¾Ľ":4839,"oy":4840,"æĹłè®ºæĺ¯":4841,"éĢĥ":4842,"ä¾¿æį·":4843,"ments":4844,"ä½ĨæĪĳ":4845,"åĮĸåĲĪ":4846,"å°ıåŃ¦":4847,"æĿ¥æıĲé«ĺ":4848,"Ġinformation":4849,"çĶŁæĹ¥":4850,"old":4851,"çĸ«èĭĹ":4852,"çļĦçľŁ":4853,"åĭĩæķ¢":4854,"åĳ½ä»¤":4855,"åĪł":4856,"æĤ²":4857,"ç¾Ĭ":4858,"çŃīæĬĢæľ¯":4859,"Ġev":4860,"æĮĳæĪĺåĴĮ":4861,"æľīæīĢä¸įåĲĮ":4862,"çı¾":4863,"å¥ĸåĬ±":4864,"æĤł":4865,"åıĮæĸ¹":4866,"åŃ¦èĢħ":4867,"Ġwork":4868,"ute":4869,"åľ¨è¿ĻéĩĮ":4870,"ory":4871,"æŀģç«¯":4872,"çĶ·æĢ§":4873,"æĢķ":4874,"éĩİçĶŁ":4875,"éĽĦ":4876,"éĺ´":4877,"åĮĻ":4878,"åŃĺåľ¨çļĦ":4879,"åĵģå°Ŀ":4880,"arr":4881,"day":4882,"cy":4883,"éģİ":4884,"Ġcost":4885,"é¢ĳçİĩ":4886,"èĲĿ":4887,"é¸¡èĤī":4888,"å·²çŁ¥":4889,"ç®¡çĲĨåĴĮ":4890,"æ´Ľ":4891,"ä»ĸåľ¨":4892,"Ġfirst":4893,"ative":4894,"ck":4895,"è¡Ģåİĭ":4896,"Ġpe":4897,"èĩ³åħ³éĩįè¦ģ":4898,"å°½åĬĽ":4899,"ç£ģ":4900,"Ġexp":4901,"äººå·¥æĻºèĥ½çļĦåıĳå±ķ":4902,"åı¤èĢģ":4903,"æķıæĦŁ":4904,"æł¹æį®èĩªå·±çļĦ":4905,"æŃī":4906,"çļĦç¨ĭ":4907,"Ġyear":4908,"ä¸ĭåĪĹ":4909,"åĬ¨è¯į":4910,"éķ¿æĹ¶éĹ´":4911,"è®¡ç®Ĺæľºç§ĳåŃ¦":4912,"é£ĺ":4913,"å¤ļåħĥ":4914,"éħįç½®":4915,"Ġboth":4916,"åĵįåºĶ":4917,"åľĪ":4918,"è¯¢éĹ®":4919,"Ġ16":4920,"é«ĺçº§":4921,"ä¼ĺåħĪçº§":4922,"åŁİå¸ĤçļĦ":4923,"ä¼¤å®³":4924,"å°ıæĿİ":4925,"æĪĳä¸ºæĤ¨":4926,"æĪĲåĬŁçļĦ":4927,"å¼ķåĬĽ":4928,"æĤī":4929,"éĩĳå±ŀ":4930,"åĵºä¹³":4931,"ello":4932,"æľīä»»ä½ķ":4933,"æľĢå°ı":4934,"äºĴçĽ¸":4935,"åĪĨè§£":4936,"å¤ıæĹ¥":4937,"æĳĩ":4938,"ä¼ļå¯¹":4939,"å®¾":4940,"å¾Īé«ĺåħ´":4941,"çķĻä¸ĭ":4942,"è¿ĻäºĽéĹ®é¢ĺ":4943,"åĳ¨æľŁ":4944,"Ð½":4945,"æ¯ķ":4946,"Ġ18":4947,"åŁºäºİä»¥ä¸ĭ":4948,"æĪĳæľĢè¿ĳ":4949,"æĩĤ":4950,"æĩī":4951,"æī©å¤§":4952,"å®ĮæĪĲä»»åĬ¡":4953,"åĴĮåŃ¦ä¹ł":4954,"çļĦçĶŁæ´»æĸ¹å¼ı":4955,"åĴĮæĹ¶éĹ´":4956,"çŁ©":4957,"è½¬åĮĸä¸º":4958,"ä»ĸä»¬ä¹ĭéĹ´çļĦ":4959,"å¿§":4960,"alculate":4961,"å®ĮåĸĦ":4962,"æĬĳ":4963,"çļĦç´":4964,"'re":4965,"å®ŀçĶ¨":4966,"string":4967,"ä¸įéľĢè¦ģ":4968,"ä¸ªäººçļĦ":4969,"è°Ĭ":4970,"ä¸ĥ":4971,"åľ°ä½į":4972,"å¾Īå¥½çļĦ":4973,"æ²Ļæ»©":4974,"çĽ¸åĬł":4975,"éĻ·":4976,"æ²»çĸĹæĸ¹æ¡Ī":4977,"çĭĹçĭĹ":4978,"ç²¾ç¡®":4979,"ä¿¡ä»°":4980,"è¯Ńè¨Ģæ¨¡åŀĭ":4981,"æĿ¥è®¡ç®Ĺ":4982,"æĽ´æľī":4983,"èĤ¯":4984,"æĺ¯éĿŀå¸¸éĩįè¦ģçļĦ":4985,"åĪĨç»Ļ":4986,"æľ¬èº«":4987,"æĸĩåĮĸçļĦ":4988,"æĮĩåįĹ":4989,"duct":4990,"çº·":4991,"æ¯«":4992,"ĠãĢĬ":4993,"æĽ´ä¸º":4994,"æħ¢æħ¢":4995,"æ¶Ĥ":4996,"å¹¶å°Ĩåħ¶":4997,"ç»ĻäºĪ":4998,"ä¸ĭéĿ¢æĺ¯":4999,"çļĦç¾İé£Ł":5000,"åĨĮ":5001,"å°¤åħ¶æĺ¯":5002,"è½¨":5003,"å¤§åľ°":5004,"æ²¿":5005,"åıįæĢĿ":5006,"\"ï¼Į":5007,"ç²¾åĬĽ":5008,"ç¦ģ":5009,"çĪ½":5010,"éĢļå¸¸æĺ¯":5011,"æķ°åŃĹåĮĸ":5012,"äºĭä¸ļ":5013,"æ°¸è¿ľ":5014,"çļĦè¿ĩç¨ĭä¸Ń":5015,"}\\)":5016,"ä¸ªä½ĵ":5017,"å¹¶ä¸º":5018,"Ġ50":5019,"å¿łè¯ļ":5020,"erg":5021,"Ġfe":5022,"é£Łè°±":5023,"æĬķèµĦèĢħ":5024,"çº¯":5025,"èıľåįķ":5026,"çļĦçĸ":5027,"Ġuse":5028,"ah":5029,"å¸¸å¸¸":5030,"å±ıå¹ķ":5031,"ars":5032,"äººä½ĵ":5033,"Ġsy":5034,"ility":5035,"çĸ«æĥħ":5036,"çļĦè®¾è®¡":5037,"æ¼Ķè®²":5038,"Ġterm":5039,"åĽ¾åĥıè¯ĨåĪ«":5040,"æī¬":5041,"æķ°åŃ¦é¢ĺ":5042,"åľ°åĿĢ":5043,"éĢļä¿¡":5044,"æŁł":5045,"Ġassist":5046,"èĮĥåĽ´åĨħ":5047,"28":5048,"ä¼Ļä¼´":5049,"å¹´ä»£":5050,"ä½łä¼ļ":5051,"Ġì":5052,"å°¿":5053,"æĻ®éĢļ":5054,"æĭħå¿ĥ":5055,"Ġwhat":5056,"æĢİæł·":5057,"åĴĮå·¥ä½ľ":5058,"åı¯ä»¥åĩıå°ĳ":5059,"eth":5060,"ma":5061,"æľįè£ħ":5062,"ĠIt":5063,"Ġhis":5064,"æĪĳæĥ³çŁ¥éģĵ":5065,"è´¦æĪ·":5066,"åĴĮéľĢæ±Ĥ":5067,"åŃ¦æľ¯":5068,"è·¯çº¿":5069,"èµ¢":5070,"å¹³éĿ¢":5071,"ç©¿çĿĢ":5072,"åī²":5073,"own":5074,"1000":5075,"æ®ĸ":5076,"æª¬":5077,"Ġ19":5078,"erv":5079,"åıĺéĿ©":5080,"åİĭåĬĽåĴĮ":5081,"çļĦä¸Ģç§į":5082,"æ±¤å§Ĩ":5083,"ä¹±":5084,"æĵļ":5085,"çļĦåĢ¼":5086,"æĤ¬":5087,"aus":5088,"è¡¨è¾¾äºĨ":5089,"ä»¿ä½Ľ":5090,"æ©Ł":5091,"ħåĬĽ":5092,"è¯ĬæĸŃåĴĮæ²»çĸĹ":5093,"ç½ļ":5094,"çģµæĦŁ":5095,"èĬĿ":5096,"æĦıè¯ĨåĪ°":5097,"é«Ķ":5098,"}$":5099,"ex":5100,"Ġele":5101,"åĪĻæĺ¯":5102,"Ġrespon":5103,"Ġfollowing":5104,"åĴª":5105,"ogle":5106,"æģĭ":5107,"å§ľ":5108,"å¤±è´¥":5109,"Ġint":5110,"ä¼łè¾ĵ":5111,"æŁĲç§į":5112,"çļĦç¥ŀ":5113,"åĴĮè¡Įä¸º":5114,"Ġequation":5115,"å°±ä¼ļ":5116,"çļĦæĸ°":5117,"Luc":5118,"å¤ľæĻļ":5119,"åı¯ä»¥ä»İ":5120,"åŁºäºİä»¥ä¸ĭè§Ĵèī²ä¿¡æģ¯":5121,"è¿ĲèĲ¥":5122,"éĽĨæĪĲ":5123,"åıĳéĢģ":5124,"æ·±åĳ¼åĲ¸":5125,"çģŃ":5126,"æ°´çļĦ":5127,"å®ĮæĪĲä¸Ģæ®µå¯¹è¯Ŀ":5128,"æŁłæª¬":5129,"åĪłéĻ¤":5130,"æĢ§æł¼":5131,"åıĭè°Ĭ":5132,"ç¦»å¼Ģ":5133,"æ¼Ĥ":5134,"^{":5135,"å¯ĮåĲ«":5136,"2022":5137,"è³ĩ":5138,"ç»Ļä½łä¸¤ä¸ª":5139,"æľĢåĸľæ¬¢çļĦ":5140,"çģ°":5141,"äºĮæ°§åĮĸ":5142,"Ġdata":5143,"çĪ¬":5144,"çļĦæľºä¼ļ":5145,"æ°§æ°Ķ":5146,"Ġsub":5147,"oogle":5148,"åĵ¦":5149,"ç¨į":5150,"ĊĠĠĠĠĠĠ":5151,"åĽŀå¿Ĩ":5152,"åĴĮä½¿çĶ¨":5153,"å¹´è½»äºº":5154,"ä¸ĢæĿ¡":5155,"è¿Ļä¸ªåı¥åŃĲ":5156,"åĿĩè¡¡":5157,"è²Į":5158,"å¤§å¤ļ":5159,"åĮ»éĻ¢":5160,"åķĨåĬ¡":5161,"å¿ĥçģµ":5162,"Ġdetermine":5163,"æ·±è¿ľçļĦå½±åĵį":5164,"çĮİ":5165,"Ġdis":5166,"è®©äººä»¬":5167,"å½ĵä»Ĭ":5168,"æĸĩæľ¬ä¸ŃçļĦ":5169,"æĹłäºº":5170,"çĻ¼":5171,"äºĭæķħ":5172,"è¦ģæ³¨æĦı":5173,"å®¢æĪ·çļĦ":5174,"åħĪè¿Ľ":5175,"åĪĽéĢłåĬĽ":5176,"å·²ç»ıæĪĲä¸º":5177,"ä¼Ĭ":5178,"éĿŀå¸¸å¥½":5179,"èĲ¥éĶĢçŃĸçķ¥":5180,"æķ°åĢ¼":5181,"è¿ĩäºİ":5182,"èĬĤèĥ½":5183,"ç¾İåĳ³çļĦ":5184,"ç·":5185,"çļĦç³ĸ":5186,"éĸĵ":5187,"è°ĥçĶ¨":5188,"è¯ķåĽ¾":5189,"very":5190,"ä¼łæĦŁ":5191,"éĢĤéĩıçļĦ":5192,"çĶŁæĪĲä¸Ģç¯ĩ":5193,"æ»¡æĦıåº¦":5194,"Em":5195,"æ¯ıä¸Ģä¸ª":5196,"æ²Ļæĭī":5197,"çĲĨå¿µ":5198,"åľºæīĢ":5199,"Ġdoes":5200,"Ġtask":5201,"åĮºåĪ«":5202,"åı£è¯Ń":5203,"ER":5204,"æĦīæĤ¦":5205,"Hello":5206,"æĳĨ":5207,"æ¶Īæģ¯":5208,"åģļå¥½":5209,"ä¸įç¡®å®ļ":5210,"å¼ķå¯¼":5211,"èº«ä½ĵåĴĮ":5212,"æĭ¼åĨĻ":5213,"åľ¨ä½¿çĶ¨":5214,"æ´ĭèĳ±":5215,"åį°è±¡":5216,"æĻ´":5217,"æµģçķħ":5218,"ject":5219,"æ¦Ĥæĭ¬":5220,"çļĦé¢ľèī²":5221,"åŃ¦ç§ĳ":5222,"è¾ĵåĩºç»ĵæŀľ":5223,"ÑĢ":5224,"æľīæľº":5225,"70":5226,"çĶ¨æĪ·ä½ĵéªĮ":5227,"ç»ĦæĪĲéĥ¨åĪĨ":5228,"æĹ¥å¸¸çĶŁæ´»ä¸Ń":5229,"Ġke":5230,"å¹²æī°":5231,"ä¿¡çĶ¨":5232,"çļĦä½įç½®":5233,"è´·":5234,"éĻĦè¿ĳ":5235,"æľīæīĢå¸®åĬ©":5236,"æĿ¥çľĭ":5237,"æĿ¥è§£åĨ³":5238,"æī£":5239,"åŃ©åŃĲä»¬":5240,"æĮĸ":5241,"èĬ±è´¹":5242,"ption":5243,"Ġshould":5244,"åŃĲåĴĮ":5245,"ç»Ļä½łä¸¤ä¸ªè§Ĵèī²ä¿¡æģ¯":5246,"ç»Ļä½łä¸¤ä¸ªè§Ĵèī²ä¿¡æģ¯å¦Ĥä¸ĭ":5247,"æĲº":5248,"çº¹":5249,"æľ¬è´¨":5250,"Ġå¦Ĥæŀľ":5251,"åı¯è¡Į":5252,"Ġdif":5253,"æ©Ħ":5254,"ç¨®":5255,"à®":5256,"ä¼łæĦŁåĻ¨":5257,"åĪĨåĪ°":5258,"å¹¿æ³ĽçļĦ":5259,"åĪ·":5260,"çİ¯å¢ĥä¸Ń":5261,"ä¿Ĺ":5262,"ãģĻ":5263,"ç¥ŀç§ĺçļĦ":5264,"è¿ľç¨ĭ":5265,"Ġ\\).":5266,"Ġstep":5267,"æĮĩåĩº":5268,"æľįåĬ¡åĻ¨":5269,"æīĢéľĢçļĦ":5270,"éĻª":5271,"ä¹Łåı¯èĥ½":5272,"åĻª":5273,"åĮĸåĲĪçī©":5274,"å¹¶ä¸įæĺ¯":5275,"çĶŁæĪĲä»ĸä»¬ä¹ĭéĹ´çļĦ":5276,"ough":5277,"çļĦçľĭ":5278,"è¦ģæ±Ĥå¯¹è¯ĿåĨħå®¹":5279,"æ¶µçĽĸ":5280,"è¯¦ç»Ĩä¸°å¯Į":5281,"Ġusing":5282,"è¦ģæ±Ĥå¯¹è¯ĿåĨħå®¹è¯¦ç»Ĩä¸°å¯Į":5283,"Ġnumbers":5284,"æ¬º":5285,"Ġmin":5286,"åĴĮæĬĢèĥ½":5287,"èĬ±åĽŃ":5288,"æıĲåīį":5289,"åĩĿ":5290,"otal":5291,"ç¼ĺ":5292,"cd":5293,"Ġph":5294,"Ġworld":5295,"æĪĳè§īå¾Ĺ":5296,"è®¡ç®Ĺæľºè§Ĩè§ī":5297,"é¡µéĿ¢":5298,"éĢĲæŃ¥":5299,"çī¹åĪ«æĺ¯":5300,"éĻĪè¿°":5301,"è¿Ļæľ¬ä¹¦":5302,"Ġdog":5303,"Ġchar":5304,"çİ¯å¢ĥçļĦ":5305,"æĻ®éģį":5306,"æĿİæĺİ":5307,"æĹ©é¤Ĳ":5308,"æľĢéĢĤåĲĪ":5309,"å¼Ģå¤´":5310,"çļĦçĬ¶":5311,"æııç»ĺ":5312,"å¿ĥèĦı":5313,"å¤§æķ°æį®":5314,"è®°ä½ı":5315,"åĲĪæ³ķ":5316,"åĨĻä¸Ģä¸ª":5317,"æ¢°":5318,"äººå·¥æĻºèĥ½æĬĢæľ¯çļĦ":5319,"è¿Ļæ®µæĸĩæľ¬":5320,"ä»¥ä¸ĭæŃ¥éª¤":5321,"æĪĳä»¬åı¯ä»¥ä½¿çĶ¨":5322,"\")":5323,"ä¸įå¤ª":5324,"éĩĳé¢Ŀ":5325,"åĴĮä¼ĺåĮĸ":5326,"Ġdiv":5327,"èĥ¸":5328,"èįīèİĵ":5329,"åĴĮå¯¹":5330,"åĵºä¹³åĬ¨çī©":5331,"ç¬¬äºĮä¸ª":5332,"erson":5333,"ç«ĭåį³":5334,"ĠPro":5335,"åı¯ä»¥çĶ¨":5336,"Ñģ":5337,"èµĦæºĲçļĦ":5338,"çĬ¯ç½ª":5339,"ince":5340,"è¾¹çķĮ":5341,"çī©æµģ":5342,"çŃĽ":5343,"çĶŁåĳ½çļĦ":5344,"ä½łæľīæ²¡æľī":5345,"æŀĿ":5346,"åľ°åĮºçļĦ":5347,"çĮª":5348,"æ¦Ħ":5349,"åķı":5350,"æĦıå¤§åĪ©éĿ¢":5351,"æ©Ħæ¦Ħ":5352,"åĽ¢éĺŁåĲĪä½ľ":5353,"name":5354,"å£ģ":5355,"Ġthey":5356,"75":5357,"å¹¶ç¡®ä¿Ŀ":5358,"str":5359,"å¼ºè°ĥäºĨ":5360,"èģĮåľº":5361,"èĥ¡æ¤Ĵ":5362,"çīĽèĤī":5363,"çļĦåħ³ç³»":5364,"ĠåĪ¶å®ļ":5365,"æĺ¯æĪĳä»¬":5366,"å¤ĸè§Ĥ":5367,"æĺ¯éĢļè¿ĩ":5368,"è£ģ":5369,"å¼ºåº¦":5370,"é«ĺæķĪçļĦ":5371,"âĦ":5372,"æ¸ħæ´Ĺ":5373,"åį°åº¦":5374,"äºĮæ°§åĮĸç¢³":5375,"æĹĭå¾ĭ":5376,"Ġother":5377,"ides":5378,"åĩĨç¡®æĢ§åĴĮ":5379,"Ġrem":5380,"åľŁåľ°":5381,"ä¹Łåľ¨":5382,"çĽ¾":5383,"ä»İæĸĩç«ł":5384,"ä»ĭç»įäºĨ":5385,"çļĩ":5386,"åıªè¦ģ":5387,"ç£¨":5388,"é¸Ń":5389,"ä»ĸäººçļĦ":5390,"çĥŃæĥħ":5391,"åľĭ":5392,"è¾£æ¤Ĵ":5393,"çİ¯ä¿ĿæĦıè¯Ĩ":5394,"å¾ĭå¸Ī":5395,"å¿ĥçĲĨåŃ¦":5396,"è±ĨèħĲ":5397,"35":5398,"åĪĢ":5399,"çľŁæŃ£çļĦ":5400,"ä¸Ģé¡¹":5401,"åºĨç¥Ŀ":5402,"åĲĪçĲĨçļĦ":5403,"èī¾ç±³":5404,"èµĦæĸĻ":5405,"åį§":5406,"å·¥ä½ľæķĪçİĩ":5407,"pro":5408,"æ¡Īä»¶":5409,"åĪĨç±»ä¸º":5410,"éľĢè¦ģè¿Ľè¡Į":5411,"å¤ĸéĥ¨":5412,"åıĸå¾ĹäºĨ":5413,"ä¸Ģå¼ł":5414,"èĩªçĦ¶çģ¾å®³":5415,"æĪĳå¸ĮæľĽ":5416,"çļĦçģµ":5417,"ä¸Ģéģĵ":5418,"è¿ĳå¹´æĿ¥":5419,"Ġ$$":5420,"ä»ĭç»įä¸Ģä¸ĭ":5421,"Ġsc":5422,"æĪĳå¯¹":5423,"vel":5424,"å±Ĥæ¬¡":5425,"çļĦçľĭæ³ķ":5426,"ä»¥ä¸ĭåı¥åŃĲ":5427,"çİ©åħ·":5428,"Ġwould":5429,"æĽ´å¥½åľ°ç®¡çĲĨ":5430,"ä¹Ļ":5431,"çļĦæ´»åĬ¨":5432,"æ°¢":5433,"å¹½":5434,"å²¸":5435,"ä¼¯":5436,"ours":5437,"ç¢º":5438,"éľĢè¦ģåľ¨":5439,"Ġcre":5440,"èĬĤçĤ¹":5441,"å²©":5442,"å¦Ĩ":5443,"çĶµåĻ¨":5444,"ian":5445,"æİ¨åĩº":5446,"Ġgener":5447,"å¢¨":5448,"å®ģéĿĻ":5449,"éĩįå¤§":5450,"çķ¶":5451,"Ġset":5452,"æİ¨èįĲä¸ĢäºĽ":5453,"æ°´ä¸Ń":5454,"åĴĮçĽ®æłĩ":5455,"è¿Ļæł·åı¯ä»¥":5456,"val":5457,"é¡Į":5458,"ä¼ĺè´¨":5459,"ä¸ĭåįĪ":5460,"åŁºæľ¬çļĦ":5461,"ç»Ļåĩºä¸Ģä¸ª":5462,"ä¸įåĨį":5463,"åıĤè§Ĥ":5464,"ãĢĭãĢĤ":5465,"stem":5466,"åº¦è¿ĩ":5467,"èĺ":5468,"å¼¦":5469,"çļĦåŁİå¸Ĥ":5470,"Ġ\\(\\":5471,"ç»ĵæŀĦåĴĮ":5472,"æµ¸":5473,"æĴĴ":5474,"LE":5475,"åĽłä¸ºå®ĥä»¬":5476,"å¥½å¤Ħ":5477,"çĥ¤ç®±":5478,"èĪĴéĢĤçļĦ":5479,"åĽĽä¸ª":5480,"Ġz":5481,"ues":5482,"çļĦè¯Ńè¨Ģ":5483,"é¢ĨåŁŁçļĦåºĶçĶ¨":5484,"éģĹäº§":5485,"åģ¥åº·åĴĮ":5486,"Ġ\\]":5487,"æĽ´é«ĺçļĦ":5488,"âĦĥ":5489,"åħ¬åħ±äº¤éĢļ":5490,":-":5491,"æŃ£å¼ı":5492,"\"ãĢĤ":5493,"çļĦè¯Ŀ":5494,"åĲĳéĩı":5495,"çªģåĩº":5496,"éĶģ":5497,"åĪ¶åº¦":5498,"right":5499,"Ġel":5500,"åħ³éĹŃ":5501,"æĪĳæ²¡æľī":5502,"ä¼Ł":5503,"çļĦå¤§":5504,"æ¬²":5505,"æĹ¥å¸¸çĶŁæ´»":5506,"æľīéĻĲ":5507,"æµı":5508,"çļĦçī¹çĤ¹":5509,"åĴĮæ°´":5510,"ock":5511,"åĶ¯ä¸Ģ":5512,"æĥħå¢ĥ":5513,"æłĩè®°":5514,"æĿİåĽĽ":5515,"é»ĳèī²":5516,"ä¸»è§Ĵ":5517,"You":5518,"è§£éĩĬä¸Ģä¸ĭ":5519,"åłµ":5520,"æµıè§Ī":5521,"åĬĽäºİ":5522,"ä»ĸä»¬åľ¨":5523,"èº«ä½ĵçļĦ":5524,"çŃīå¤ļä¸ª":5525,"å½ĵä½ł":5526,"Ġæķ°æį®":5527,"ç¢Ĺ":5528,"æĵħ":5529,"io":5530,"æĬµ":5531,"ution":5532,"ç¿»è¯ĳæĪĲä¸Ńæĸĩ":5533,"æ°´åĴĮ":5534,"ower":5535,"ä¹Łå¾Ī":5536,"è£Ĥ":5537,"äººå·¥æĻºèĥ½åı¯ä»¥":5538,"å§ĵåĲį":5539,"Ġå»ºç«ĭ":5540,"åįľ":5541,"GP":5542,"åĳ¨æľ«":5543,"çĽĪ":5544,"äººåľ¨":5545,"ä»¥å¸®åĬ©":5546,"èīºæľ¯å®¶":5547,"èĢĥèĻĳåĪ°":5548,"åĨħåŃĺ":5549,"åĪĹè¡¨ä¸Ń":5550,"å¯¿åĳ½":5551,"åı¯ä»¥å°Ŀè¯ķ":5552,"æĪĳåĢĳ":5553,"cond":5554,"æıĲä¾ĽæĽ´å¥½çļĦ":5555,"é£ŀæľº":5556,"Ġ==":5557,"å®¢æĪ·æľįåĬ¡":5558,".ãĢĬ":5559,"å§ĭç»Ī":5560,"ç³Ĭ":5561,"éħª":5562,"å¸¸çĶ¨çļĦ":5563,"ä»Ķç»Ĩ":5564,"éĤ£ä¸ª":5565,"æĥħæĦŁåĪĨæŀĲ":5566,"åĬĽåŃ¦":5567,"Ġany":5568,"çĽŁ":5569,"æĬĢæľ¯çļĦåıĳå±ķ":5570,"éģŃ":5571,"äººæķ°":5572,"æ»´":5573,"åĽŀå½Ĵ":5574,"Ġrel":5575,"ãĢĤâĢľ":5576,"è´¸":5577,"åĸ»":5578,"è¿Ľè¡ĮäºĨ":5579,"å¤§å¤ļæķ°":5580,"åĹ¯":5581,"æľīçĤ¹":5582,"éĶħä¸Ń":5583,"æļĤ":5584,"Ġspecific":5585,"æı´":5586,"æĸľ":5587,"å©ļç¤¼":5588,"éĤĢ":5589,"Ġrange":5590,"åĲĮåŃ¦":5591,"éī":5592,"åĪĿåŃ¦èĢħ":5593,"è´«":5594,"åº¦åģĩ":5595,"Ġsuch":5596,"Ġ13":5597,"åı¯ä»¥å¸®åĬ©åĮ»çĶŁ":5598,"è¿ĺæľīåħ¶ä»ĸ":5599,"Script":5600,"æĮĤ":5601,"ç¯®çĲĥ":5602,"åİŁåŃĲ":5603,"åĬłçĥŃ":5604,"æĻ¨":5605,"æĺ¯ä¸Ģéĥ¨":5606,"æ¬¡æķ°":5607,"Ġä½łå¥½":5608,"ç§ĳæĻ®":5609,"Ġ---":5610,"çĮ«åĴª":5611,"çľ¼çĿĽ":5612,"éĢīæĭ©ä¸Ģä¸ª":5613,"Ġposs":5614,"è¿«":5615,"ä¸Ģæľ¬":5616,"Ġthere":5617,"åŃĲéĩĮ":5618,"è¾ĥé«ĺ":5619,"çļĦçĭ¬":5620,")^":5621,"åĪļåĪļ":5622,"ä¸Ģåľº":5623,"æľºéģĩ":5624,"Ġmult":5625,"èĩ´åĬĽäºİ":5626,"ople":5627,"æİ¥æĶ¶":5628,"Ġ60":5629,"åĴĮèµĦæºĲ":5630,"å¤Ħäºİ":5631,"äººéĻħåħ³ç³»":5632,"çĶ¨éĢĶ":5633,"æĿ¥çļĦ":5634,"åįıåĬ©":5635,"çĳŀ":5636,"æĽ¼":5637,"éĢĬ":5638,"ana":5639,"æī«":5640,"çĶŁæĪĲçļĦ":5641,"æıŃ":5642,"è¾ĥä½İ":5643,"æķĻèĤ²åĴĮ":5644,"èİ«":5645,"æĬĢè¡ĵ":5646,"çĸ²åĬ³":5647,"by":5648,"ull":5649,"ä¹ĺä»¥":5650,"åĮºåĿĹéĵ¾æĬĢæľ¯":5651,"æ³¢åĬ¨":5652,"æľīæĹ¶åĢĻ":5653,"fore":5654,"æ³ķè¯Ń":5655,"åĪĽæĸ°çļĦ":5656,"éģĹä¼ł":5657,"Ġpoint":5658,"é²ģ":5659,"èĬ³":5660,"ĠFinal":5661,"Ġwhere":5662,"\\(":5663,"è¢«è®¤ä¸ºæĺ¯":5664,"Ġco":5665,"æ£ĭ":5666,"æĻĴ":5667,"ãĢĭï¼Ī":5668,"éī´":5669,"æĶ¾å¼ĥ":5670,"ä¼ĺç§ĢçļĦ":5671,"çħİ":5672,"è¯ĦåĪĨ":5673,"æĪª":5674,"ä½Ĩä¸įéĻĲäºİ":5675,"count":5676,"å¼ºåĮĸ":5677,"cent":5678,"SQL":5679,"çļĦåĬŁèĥ½":5680,"åıĸåĩº":5681,"é¢ĦæľŁ":5682,"ä¼ĳéĹ²":5683,"ä¹Ĳè¶£":5684,"åŃ¦ä¹łæĸ°":5685,"æ²»çĲĨ":5686,"ä¸Ģå¹´":5687,"æĦŁæĥħ":5688,"angu":5689,"æĢª":5690,"æķħéļľ":5691,"èŃ¦å¯Ł":5692,"åĮħå®¹":5693,"è¿ĺåī©ä¸ĭ":5694,"éĵº":5695,"æĶ¯åĩº":5696,"olog":5697,"çŃīä¿¡æģ¯":5698,"æĪĳä»¬ä¼ļ":5699,"æ¥ļ":5700,"ize":5701,"çļĦç¾İå¥½":5702,"åĮħæĭ¬ä½Ĩä¸įéĻĲäºİ":5703,"å¦ĤæŀľæĤ¨éľĢè¦ģ":5704,"éĥ½åľ¨":5705,"ç«ŀäºīå¯¹æīĭ":5706,"å±ŀæĢ§":5707,"çļĦçĻ":5708,"æıĲä¾ĽæĽ´åĬł":5709,"çĩĥæĸĻ":5710,"Ġä¸ª":5711,"çĤ¹åĩ»":5712,"è°ľ":5713,"æ¸©å®¤æ°Ķä½ĵ":5714,"CT":5715,"çĻ½èī²":5716,"æ³Ħéľ²":5717,"èĬĴ":5718,"æĸ°éĹ»æĬ¥éģĵ":5719,"åı¯éĿłæĢ§":5720,"è§Ĥçľĭ":5721,"blem":5722,"ä¸ĸçķĮçļĦ":5723,"æĭĶ":5724,"Ġcol":5725,"æĮĸæİĺ":5726,"æµģéĩı":5727,"Ġincl":5728,"åĪĽéĢłåĩº":5729,"ature":5730,"æ¡ĥ":5731,"ength":5732,"æł·æľ¬":5733,"çļĦæķĪæŀľ":5734,"çº¦ä¸º":5735,"æĥħæĦŁåĴĮ":5736,"'m":5737,"å°ıåŀĭ":5738,"Ġ11":5739,"ä¿¡æģ¯åĴĮ":5740,"è¡¨è¾¾å¼ı":5741,"éĥ½åı¯ä»¥":5742,"æĴĳ":5743,"ä»¥åħ¶":5744,"ä¹Ŀ":5745,"ä¿ĿçķĻ":5746,"ose":5747,"Ġbl":5748,"å®¿":5749,"è°¨":5750,"return":5751,"å¦Īå¦Ī":5752,"ä½łæľī":5753,"å·¨å¤§":5754,"å¹¿æ³ĽåºĶçĶ¨":5755,"çĽ¸æ¯Ķ":5756,"åĨĻä¸Ģç¯ĩåħ³äºİäººå·¥æĻºèĥ½":5757,"åİ»äºĨ":5758,"cdot":5759,"éļĲç§ģä¿ĿæĬ¤":5760,"Ġcontain":5761,"è«":5762,"ç½²":5763,"å§¿åĬ¿":5764,"Ġrequ":5765,"çļĦç¨ĭåºı":5766,"æ°Ķæģ¯":5767,"åĲĦåľ°":5768,"ug":5769,"Ġ14":5770,"åĴĮå¤ĦçĲĨ":5771,"é¦¨":5772,"åı¹":5773,"è¿Ļæ¬¡":5774,"36":5775,"ĽçĽ¾":5776,"éĹľ":5777,"éľĢè¦ģæł¹æį®":5778,"è¾ĥä¸º":5779,"ç»Ļå®ļä¸Ģä¸ª":5780,"èı²":5781,"åĢ¾åĲ¬":5782,"äººåĲį":5783,"æĪĳæĥ³äºĨè§£":5784,"åħįè´¹":5785,"åľ¨ä¸įåĲĮ":5786,"Ġquestion":5787,"æ¯ıä¸ªæľĭåıĭ":5788,"è¯Ī":5789,"ix":5790,"é¢Ī":5791,"Ġshe":5792,"åı¤åħ¸":5793,"ines":5794,"çļĦåĲĮæĹ¶":5795,"åĽŀæĬ¥":5796,"æĪĳä»¬åı¯ä»¥éĢļè¿ĩ":5797,"St":5798,"éľľ":5799,"æĥľ":5800,"éĢļçŁ¥":5801,"çĽ¸åıį":5802,"å°ºå¯¸":5803,"èĢģæĿ¿":5804,"åĴĮåĪĽæĸ°":5805,"è¿Ļå®¶":5806,"æĺ¨å¤©":5807,"ãĢĤãĢĬ":5808,"æģĴæĺŁ":5809,"led":5810,"çļĦåŃ¦ä¹ł":5811,"æľīæĹ¶":5812,"æĪĸæľįåĬ¡":5813,"å²Ĺ":5814,"Ġher":5815,"éĢĶå¾Ħ":5816,"èĩªæĪĳæĦıè¯Ĩ":5817,"ä¸įèī¯":5818,"ä¸ĢçĽ´åľ¨":5819,"çĩ¥":5820,"ek":5821,"åĴĮå¹³":5822,"æĭĸ":5823,"ä¸Ģéĥ¨":5824,"ç¯ĩåħ³äºİ":5825,"éĩİçĶŁåĬ¨çī©":5826,"è¿ĩæ»¤":5827,"åı«åģļ":5828,"çļĦç½ĳç«Ļ":5829,"æĭĤ":5830,"åľ¨å·¥ä½ľ":5831,"åĪĨæķ£":5832,"`ï¼Į":5833,"åĪ¶åĵģ":5834,"æ»ļ":5835,"æ°ĳæĹı":5836,"è¡Įé©¶":5837,"ãĢĭï¼Į":5838,"æī¿æĭħ":5839,"iginal":5840,"æĻ¯è§Ĥ":5841,"ä»¥éģ¿åħį":5842,"æĽ´åĩĨç¡®åľ°":5843,")```":5844,"åħ±åĲĮåĬªåĬĽ":5845,"DNA":5846,"ä¿¡æģ¯çļĦ":5847,"èĢĮéĿŀ":5848,"æĺ¯äººç±»":5849,"èĲĿåįľ":5850,"æħİ":5851,"input":5852,"å¿ĹæĦ¿":5853,"æ°ıåº¦":5854,"ä½ĵç§¯":5855,"é¢Ĺç³ĸæŀľ":5856,"åľ¨ä¸ŃåĽ½":5857,"Ġsome":5858,"çļĦçĹħ":5859,"æ©Ħæ¦Ħæ²¹":5860,"è±ª":5861,"æĪĺçķ¥":5862,"çļĦå¸®åĬ©":5863,"åİĤ":5864,"IT":5865,"æĬĢæľ¯æĿ¥":5866,"è¯·éĹ®æĤ¨":5867,"åĩºåıĳ":5868,"æľºåĻ¨ç¿»è¯ĳ":5869,"çĶ·åŃ©":5870,"åĪ°çļĦ":5871,".,":5872,"ä¸Ģä»¶":5873,"çĨŁæĤī":5874,"æĮĩç¤º":5875,"ä¸ĢåĪĩ":5876,"è®¾è®¡ä¸Ģä¸ª":5877,"çļĦæĦıæĢĿ":5878,"æĪĳåĲ¬è¯´":5879,"ĠFor":5880,"Ġche":5881,"æķ´çĲĨ":5882,"å±ķå¼Ģ":5883,"å°ĺ":5884,"çĶµåĬ¨":5885,"çĶ»éĿ¢":5886,"ä¸ĢåĢĭ":5887,"Ġtext":5888,"çļĦçĬ¶æĢģ":5889,"è´¸æĺĵ":5890,"Ġstring":5891,"Ġsim":5892,"åħ´å¥ĭ":5893,"æ®ĭ":5894,"åĨ·éĿĻ":5895,"èıĩ":5896,"ä¿ĿæĬ¤æĪĳä»¬çļĦ":5897,"lic":5898,"ä¸ĢæĿ¯":5899,"èİ·å¾ĹäºĨ":5900,"çļĦç«ŀ":5901,"Ġthen":5902,"èĢĲå¿ĥ":5903,"æ¢ħ":5904,"å»ºè®®åĲĹ":5905,"èĸª":5906,"åŃ¦çĶŁçļĦåŃ¦ä¹ł":5907,"æī¾åĪ°äºĨ":5908,"Ġ40":5909,"Ġstud":5910,"ude":5911,"çļĦæ°´":5912,"Ġå¥½çļĦ":5913,"åı¯ä»¥çĶ¨æĿ¥":5914,"rit":5915,"çļĦæĦŁè§ī":5916,"pi":5917,"Ġdiffe":5918,"è®©ä»ĸä»¬":5919,"å°ıåįİ":5920,"çļĦæĸĩåĮĸ":5921,"çĶ¨åĵģ":5922,"ID":5923,"å¤©çĦ¶":5924,"çĽ®æłĩåĴĮ":5925,"æĹ¶éĹ´ç®¡çĲĨ":5926,"ffe":5927,"**,":5928,"ied":5929,"Ġfact":5930,"åı¯è§Ĩ":5931,"Ð¾Ð":5932,"æŃ»äº¡":5933,"å¹¶è¿Ľè¡Į":5934,"å°½å¿«":5935,"ç®Ģè¦ģ":5936,"èĦĨ":5937,"æ¥Ń":5938,"çĸ¼":5939,"çī©èģĶç½ĳ":5940,"å°Ĩå®ĥä»¬":5941,"å¤§è§Ħæ¨¡":5942,"è®¯":5943,"æ¯ıåĳ¨":5944,"ä»¥ä¸ĭæĺ¯ä¸Ģéģĵ":5945,"ons":5946,"å®ĥä»¬åľ¨":5947,"å¾Ĵ":5948,"æĽ´æĶ¹":5949,"å®īéĿĻ":5950,"èĥ½å¤Łåľ¨":5951,"çļĦæł¸å¿ĥ":5952,"ä¹Łå°Ĩ":5953,"æµģåĬ¨":5954,"ä¼łæī¿":5955,"çķĮéĿ¢":5956,"ä¸Ńæľī":5957,"åĽŀå¤į":5958,"Ġcount":5959,"çľĭåĪ°äºĨ":5960,"æıĲé«ĺäºĨ":5961,"çĮľ":5962,"è¼":5963,"é¥®é£Łä¹łæĥ¯":5964,"åį«æĺŁ":5965,"æĵħéķ¿":5966,"åĴĮäººç±»":5967,"æ¤ħ":5968,"è¿Ľç¨ĭ":5969,"å°±åĥı":5970,"//":5971,"å¥½äºĨ":5972,"æķ°åŃĹçļĦ":5973,"ild":5974,"à¹":5975,"lex":5976,"ä¿ĿåŃĺ":5977,"åĪ¶æĪĲ":5978,"è¿Ń":5979,"çİ»":5980,"éĩĩåıĸè¡ĮåĬ¨":5981,"èĥĥ":5982,"æĮĩå®ļ":5983,"æĬ±æŃī":5984,"verage":5985,"çļĦçĭĹ":5986,"éĿ©åĳ½":5987,"åĭĴ":5988,"æĹ¦":5989,"æĽ´æį¢":5990,"div":5991,"æ¸©é¦¨":5992,"åı¥åŃĲä¸Ń":5993,"åĴĮé«ĺ":5994,"èµ·æºĲ":5995,"æº¶":5996,"åĩºçĶŁ":5997,"è°¢è°¢ä½łçļĦ":5998,"Ġtransl":5999,"éĿŀå¸¸éĢĤåĲĪ":6000,"Ġ$\\":6001,"light":6002,"æĪĲçĨŁ":6003,"sort":6004,"æ³Ĭ":6005,"ï¼ļãĢĬ":6006,"æĿĲè´¨":6007,"ä¼łç»ŁæĸĩåĮĸ":6008,"ĠEx":6009,"ä¹Łèĥ½":6010,"æķ°æĺ¯":6011,"åĽ¾ä¹¦":6012,"æĪ¿å±ĭ":6013,"çĽĹ":6014,"ĠTo":6015,"é¸Łç±»":6016,"å©´":6017,"ful":6018,"æ¶ĪéĻ¤":6019,"åĢ¾åĲĳ":6020,"Ġresponse":6021,"è®¢åįķ":6022,"ç»ĺçĶ»":6023,"quare":6024,"ä»İè¿Ļç¯ĩæĸĩç«ł":6025,"è¯ķè¯ķ":6026,"æľĪçĲĥ":6027,"çĸ¾çĹħçļĦ":6028,"å®ŀéĻħåºĶçĶ¨":6029,"æ³ķå¾ĭæ³ķè§Ħ":6030,"æĹĭè½¬":6031,"éĤĢè¯·":6032,"Ġç¡®å®ļ":6033,"æĤ£èĢħçļĦ":6034,"Ġinv":6035,"æĺ¯ä¸Ģé¡¹":6036,"not":6037,"èĬĤçľģ":6038,"Th":6039,"Answer":6040,"å®Įç¾İ":6041,"æĽ´æ·±åħ¥":6042,"æĹ¥çĽĬ":6043,"åıī":6044,"å°ıçİĭ":6045,"è®²è¿°äºĨ":6046,"vert":6047,"çļĦç¨³":6048,"æĿĥçĽĬ":6049,"å¯Įæľī":6050,"æ¢¯":6051,"æĿ¥å¸®åĬ©":6052,"çİ¯ä¿ĿçļĦæĸĩç«ł":6053,"åıł":6054,"Ġreal":6055,"åłĨ":6056,"áĢ":6057,"Ġour":6058,"æľīå®³":6059,"æĻºèĥ½æīĭæľº":6060,"é»ĳæļĹ":6061,"ause":6062,"åįĩçº§":6063,"éĿ¢ç²ī":6064,"åĬ¨çĶ»":6065,"ML":6066,"æ¸ħæĸ°":6067,"ade":6068,"å¹¶æł¹æį®":6069,"dd":6070,"çļĦä¸ĸçķĮ":6071,"ä»¥ä¸ĭæĺ¯ä¸Ģéģĵå°ıåŃ¦":6072,"è¿ĻäºĽä¿¡æģ¯":6073,"å¹¿éĺĶ":6074,"å¦ĤæŀľæĪĳä»¬":6075,"çļĦä»£çłģ":6076,"ä¸Ńä½¿çĶ¨":6077,"Ġref":6078,"å¸ĥå±Ģ":6079,"Ġinter":6080,"çļĦéķ¿åº¦":6081,"çļĦçĪ±æĥħ":6082,"éĢĨ":6083,"çĭ®":6084,"åºĦ":6085,"åĴĮåģ¥åº·":6086,"å¹¶æıĲé«ĺ":6087,"Ġstr":6088,"ics":6089,"çļĦæľįåĬ¡":6090,"æĶ¾ç½®":6091,"å°ĩ":6092,"åĩ¡":6093,"è¿Ļæĺ¯åĽłä¸º":6094,"ä»¥ä¸ĭæĺ¯ä¸Ģéģĵå°ıåŃ¦æķ°åŃ¦é¢ĺ":6095,"çĲĨæĥ³":6096,"è¨Ī":6097,"æĥ§":6098,"ä¿ĿæĮģåģ¥åº·":6099,"åĩºèī²":6100,"çĭĲ":6101,"ings":6102,"æĭĵå±ķ":6103,"èĴĻ":6104,"åī§æĥħ":6105,"é³":6106,"èģĬå¤©æľºåĻ¨äºº":6107,"æĺ¯æľĢ":6108,"æĽ´å¤§çļĦ":6109,"anc":6110,"èĤīç±»":6111,"åľ°çĲĨ":6112,"æĹħç¨ĭ":6113,"èĨľ":6114,"åħ¼":6115,"Ġstart":6116,"å®¶åºŃæĪĲåĳĺ":6117,"æĬĵ":6118,"...":6119,"èªŀ":6120,"æĲľç´¢å¼ķæĵİ":6121,"ï¼ī-":6122,"ä¸ºä¸»":6123,"cm":6124,"rans":6125,"é©±åĬ¨":6126,"èĪĩ":6127,"æİ¥è¿ĳ":6128,"ets":6129,"è¯Ńå¢ĥ":6130,"è¿Ļé¡¹":6131,"çĶŁåĬ¨":6132,"è®¾è®¡åĴĮ":6133,"åįģå¹´":6134,"Ġday":6135,"å¼Ģå±ķ":6136,"Ġ24":6137,"çĶ¢":6138,"çĴĥ":6139,"ãĤĴ":6140,"çļĦçľ¼":6141,"åĴĮæľĭåıĭ":6142,"åĪ¶å®ļä¸Ģä¸ª":6143,"hen":6144,"äººå·¥æĻºèĥ½å°Ĩ":6145,"è®ĵ":6146,"åĲĮæĦı":6147,"äºĨå¾Īå¤ļ":6148,"éĺĲ":6149,"å®ĥåľ¨":6150,"AIåľ¨":6151,"éļ¾åº¦":6152,"å¹¶ä½¿çĶ¨":6153,"ä¼ģä¸ļçļĦ":6154,"å¼ºå¤§":6155,"åħĶåŃĲ":6156,"æī¿åıĹ":6157,"Ġarr":6158,"è¯·éļıæĹ¶":6159,"æľ¯è¯Ń":6160,"SE":6161,"å½ĵæĹ¶":6162,"ç»ıéªĮåĴĮ":6163,"Ġthese":6164,"æĶ¾æĿ¾èº«å¿ĥ":6165,"çŃīå¤ļç§į":6166,"èĢĢ":6167,"å®ļå¾ĭ":6168,"èİİ":6169,"ä½łåı¯ä»¥ä½¿çĶ¨":6170,"åĪĽæĸ°åĴĮ":6171,"ä¸»äººåħ¬":6172,"Ġpar":6173,"fter":6174,"ä»»åĬ¡çļĦ":6175,"å¯Ĩåº¦":6176,"ÙĦ":6177,"æ¨¡åĿĹ":6178,"æľīå¤ļå°ĳ":6179,"Ġprint":6180,"çĭ¸":6181,"åĪĽéĢłä¸Ģä¸ª":6182,"ç»ĻæĪĳä¸ĢäºĽ":6183,"Ġæĺ¯çļĦ":6184,"å¹´äºº":6185,"è¥¿çıŃ":6186,"è¥¿çıŃçīĻ":6187,"æĴŀ":6188,"æĪĳè¿ĺ":6189,"æľīæ°§":6190,"Ġalso":6191,"æİ¥çĿĢ":6192,"çĽĨ":6193,"é¢Ħè®¢":6194,"åľ°éĿ¢":6195,"å¤§å¤§":6196,"ä¸ĵéĹ¨":6197,"ular":6198,"He":6199,"ĠRe":6200,"Ġexpl":6201,"éĢ²è¡Į":6202,"è¡¥åħħ":6203,"ä½Ĩåľ¨":6204,"Ġlet":6205,"åģļæ³ķ":6206,"æ¯ıä¸ªäººçļĦ":6207,"çĽ¸åĲĮçļĦ":6208,"éŃħåĬĽ":6209,"è¿Ľåº¦":6210,"è¯¸":6211,"çļĦç¨³å®ļ":6212,"è°ĵ":6213,"å¦ĩ":6214,"æ¸ħçĲĨ":6215,"ä¸»è§Ĥ":6216,"åİ¨æĪ¿":6217,"æİ¨è¿Ľ":6218,"æĻ¶":6219,"åĮħè£ħ":6220,"rite":6221,"ç®Ĺæ³ķçļĦ":6222,"å®ĥå°Ĩ":6223,"åŃĶ":6224,"å½¢æĢģ":6225,"åĸ·":6226,"èĥ½å¤Łå¸®åĬ©":6227,"ç¬Ķè®°":6228,"Ġmat":6229,"èĴĤ":6230,"anguage":6231,"ç½©":6232,"ç§ĭå¤©":6233,"çļĦç«ŀäºī":6234,"è®°å¾Ĺ":6235,"Google":6236,"æŁĶè½¯":6237,"èĭ±éĽĦ":6238,"æķĮ":6239,"Ġwho":6240,"èĿ¶":6241,"ä¹Ķ":6242,"å¯¹æĤ¨":6243,"æĽ´é«ĺ":6244,"åĲĪéĢĤ":6245,"å¦Ĥä½ķä½¿çĶ¨":6246,"å½Ĵç±»":6247,"çĪ¸":6248,"åĽ¾å½¢":6249,"éĨĭ":6250,"æľªæĿ¥åıĳå±ķ":6251,"ä¼ļå½±åĵį":6252,"Ġwhen":6253,"åģ¶æķ°":6254,"çİ»çĴĥ":6255,"çļĦè¯ĹæŃĮ":6256,"ural":6257,"éĸĭ":6258,"éĻ¤æŃ¤":6259,"åĴĮç»ıæµİ":6260,"Ġrandom":6261,"åī©ä½Ļ":6262,"ically":6263,"æ²³æµģ":6264,"çļĦé«ĺ":6265,"åĨ¬åŃ£":6266,"lish":6267,"ï¼Į`":6268,"çº¿æĢ§":6269,"ern":6270,"Ġpeople":6271,"åĽºå®ļ":6272,"ures":6273,"æµħ":6274,"æ´»åĬĽ":6275,"éĿ¢ä¸´çĿĢ":6276,"ãĢĮ":6277,"\"\"":6278,"çļĦæ¦Ĥå¿µ":6279,"å¼ºçļĦ":6280,"çĶŁæĪĲä¸Ģä¸ªåħ³äºİ":6281,"ä»¥åĩıå°ĳ":6282,"åĬłåī§":6283,"çªģçł´":6284,"åĴĮçĶŁæ´»":6285,"çļĦçĮ":6286,"Lucy":6287,"åħµ":6288,"çĨĬçĮ«":6289,"ä»Ļ":6290,"å¹²åĩĢ":6291,"è´·æ¬¾":6292,"ãĢį":6293,"Ġcorrect":6294,"äººå·¥æĻºèĥ½åĴĮ":6295,"Ġ200":6296,"è¾ĵåħ¥çļĦ":6297,"èħ»":6298,"çĶĺ":6299,"è£Ļ":6300,"æĺİçĻ½äºĨ":6301,"å²Ĺä½į":6302,"ĠAnswer":6303,"ä¹ĲæĦı":6304,"\"}":6305,"éĻ¤æŃ¤ä¹ĭå¤ĸ":6306,"æķ¦":6307,"ä¸įå¤Ł":6308,"æīĭè¡¨":6309,"So":6310,"æ²ŁéĢļåĴĮ":6311,"éŁ©":6312,"ĠæıĲä¾Ľ":6313,"æĪĸç¼º":6314,"çģ«æĺŁ":6315,"çĥŃéĹ¨":6316,"æ³¥":6317,"ä¸īç§į":6318,"å¼ĢåıĳèĢħ":6319,"åĲ¬èµ·æĿ¥å¾Ī":6320,"Ġinteg":6321,"ä¸ĢçĤ¹":6322,"--------":6323,"éģįåİĨ":6324,"çİ¯å¢ĥéĹ®é¢ĺ":6325,"çļĦåŃ£èĬĤ":6326,"æĢ»ä½ĵ":6327,"æĵ¦":6328,"æĪĳæŃ£åľ¨":6329,"Ġent":6330,"èį¡":6331,"æº¯":6332,"ä¸Ģåħ±æľī":6333,"çĩķ":6334,"åĴĮä¸ªäºº":6335,"çĽ¸äºĴä½ľçĶ¨":6336,"ç§ĳæĻ®æĸĩç«ł":6337,"Ġused":6338,"Ġgre":6339,"27":6340,"sh":6341,"åı¯èĥ½æľī":6342,"æµ·å¹³éĿ¢":6343,"æĸ¹æ³ķæĿ¥":6344,"èĢį":6345,"å¯ĵ":6346,"åĪĹä¸¾":6347,"åĲĪæĪĲ":6348,"çļĦç¡":6349,"äºĳè®¡ç®Ĺ":6350,"æľºæ¢°":6351,"ç»ĻæĤ¨":6352,"çĥŃéĩı":6353,"åı¯èĥ½ä¼ļå¯¹":6354,"ĨĴ":6355,"Ġpossible":6356,"çļĦéĢŁåº¦":6357,"åľ°éľĩ":6358,"æĥĳ":6359,"æĦıå¤ĸ":6360,"çŃĽéĢī":6361,"å¼Ģå¿ĥ":6362,"æ¡¶":6363,"åĲĮä¹īè¯į":6364,"è¢«è§Ĩä¸º":6365,"æĸ¤":6366,"èĻ¾":6367,"æ´ª":6368,"è¿ĻäºĽæĬĢæľ¯":6369,"åĭ¤":6370,"é²¸":6371,"Ġexpress":6372,"ä¹Łå°±æĺ¯":6373,"ä¸Ģçīĩ":6374,"time":6375,"é½Ĳ":6376,"Ġmake":6377,"å®īåħ¨çļĦ":6378,"rown":6379,"åľ¨è¿Ļç§į":6380,"å¯¹æ¯Ķ":6381,"ç©Ĩ":6382,"å¸¦æľī":6383,"éĽķ":6384,"åıĳåĩº":6385,"irect":6386,"å°ıçĭĹ":6387,"èĬ¬":6388,"è®¤åı¯":6389,"ä½ľå®¶":6390,"èĩªçĦ¶çİ¯å¢ĥ":6391,"Ġproblem":6392,"Ph":6393,"æĦŁæ¿Ģ":6394,"å°Ĭæķ¬":6395,"å®¶åĽŃ":6396,"å»ºç«ĭä¸Ģä¸ª":6397,"è¿ŀç»Ń":6398,"Ġè®¡ç®Ĺ":6399}